. 239576
, 113853
: 68721
qujannamiik 56757
) 43890
( 43752
uqaqti 24582
ammalu 22444
minista 21370
tusaajitigut 21274
iksivautaq 19911
uqaqtii 19535
amma 13676
tusaajikkut 9917
tamanna 9788
aq@@ 8389
iksivautaaq 7686
ar@@ 7511
mista 6910
&gt; 6273
ang@@ 6177
u@@ 6096
uq@@ 6025
2 6000
tutu 5977
ta@@ 5894
a@@ 5865
it 5609
a 5583
maligaliuqtiit 5561
? 5254
i@@ 5166
i 5150
si@@ 5054
aq 5030
ju@@ 5026
mi 5009
ti@@ 4818
k@@ 4732
iq@@ 4724
mut 4689
ani 4645
tu@@ 4645
ak@@ 4641
p@@ 4637
at 4584
angajuqqaa 4561
- 4505
nunavummi 4499
inn@@ 4376
tau@@ 4265
u 4238
an@@ 4175
uti@@ 4153
q@@ 4139
unn@@ 4023
s@@ 3945
g@@ 3927
in@@ 3911
1 3903
kisiani 3901
pi@@ 3891
piiku 3889
qilavvaq 3832
ung@@ 3770
tamakkua 3763
inuit 3736
mik 3703
ur@@ 3690
ilangit 3688
au@@ 3680
ing 3646
gi@@ 3596
5 3566
ik@@ 3491
at@@ 3470
ing@@ 3449
nunavumi 3434
un@@ 3395
itsivautaq 3347
alu@@ 3334
nunavut 3332
aqtu@@ 3326
v@@ 3316
piita 3302
uvvaluunniit 3222
sa@@ 3217
taakkua 3193
t@@ 3161
taanna 3147
$ 3117
nakurmiik 3117
ujut 3104
atti@@ 3074
utiq@@ 3072
li@@ 3055
taq@@ 3038
aj@@ 3036
ariaq@@ 3028
taikkua 3028
ut 3002
taima@@ 2961
n@@ 2944
uv@@ 2939
vi@@ 2928
up 2927
ikkarrialuk 2879
anga 2868
ma@@ 2861
ir@@ 2848
mi@@ 2821
sima@@ 2817
j@@ 2809
arn@@ 2718
maligaliurvingmut 2692
uqausingit 2672
ati@@ 2666
aqti@@ 2664
r@@ 2663
kiinaujait 2661
akkut 2645
mit 2644
aqtut 2643
gavamakkut 2636
m@@ 2630
tuinn@@ 2629
ut@@ 2627
atta 2609
nunalinni 2581
asu@@ 2578
ig@@ 2572
angit 2569
al@@ 2566
atuq@@ 2560
it@@ 2557
anut 2546
simajut 2514
ki@@ 2510
ari@@ 2481
am@@ 2476
uqausikkut 2475
av@@ 2464
giaq@@ 2463
kisianili 2462
ala@@ 2455
&amp; 2443
ujuq 2433
ag@@ 2417
piliri@@ 2417
qanuq 2409
aqtuq 2403
asi@@ 2379
sivuliqti 2366
su@@ 2364
suli 2361
ata@@ 2359
as@@ 2355
tti@@ 2348
tut 2348
3 2346
pitaq@@ 2344
il@@ 2338
taamsan 2325
lutik 2317
aru@@ 2306
ullumi 2299
uqausi@@ 2298
illu@@ 2295
uj@@ 2282
ali@@ 2258
6 2242
ij@@ 2233
atuinn@@ 2225
avut 2225
atu@@ 2217
ara 2213
alauq@@ 2212
aqp@@ 2207
anik 2203
armat 2194
nunali@@ 2186
ili@@ 2173
gij@@ 2157
qu@@ 2147
katimajiralaat 2141
is@@ 2138
uqausiq@@ 2136
inu@@ 2127
anng@@ 2126
akisuk 2116
ti 2111
tuq 2098
lu@@ 2095
uqaq@@ 2086
ik 2085
ukaliq 2071
piitasan 2065
ingit 2051
auj@@ 2048
ikajuq@@ 2045
mat 2045
arvaarluk 2042
uk 2039
tunut 2029
aju@@ 2023
taimali 2019
inginnut 2007
tuni 2006
katimajjutiit 2004
ami 1994
tunik 1994
tig@@ 1992
lugu 1990
amik 1982
ii 1975
tuq@@ 1971
ani@@ 1966
unnar@@ 1962
unnaq@@ 1960
malig@@ 1959
arnirmut 1949
akili@@ 1948
maannaujuq 1940
tak@@ 1938
tsi@@ 1930
kuuli 1924
l@@ 1906
tigut 1891
nunaliit 1890
mata 1889
iv@@ 1876
ittu@@ 1875
milian 1863
pattatuqtut 1863
4 1859
pa@@ 1859
ama 1835
uni 1835
aujut 1832
iar@@ 1832
angajuqqaaq 1824
inga 1810
arnir@@ 1800
ila@@ 1797
haviujaq 1796
inginnik 1796
lir@@ 1794
ug@@ 1786
akk@@ 1776
piliriaq@@ 1767
katimajjutiksaq 1761
gu@@ 1759
itti@@ 1752
san@@ 1751
qaujis@@ 1749
qa@@ 1743
iaq@@ 1741
ann@@ 1739
illu 1735
uiliams 1722
aqta@@ 1720
qaujima@@ 1719
ni@@ 1718
anit 1713
mmat 1712
iksivautaa 1710
ul@@ 1708
ata 1704
issivautaq 1703
angiq@@ 1700
qanu@@ 1700
simaj@@ 1699
kk@@ 1698
anaruaq 1695
kkut 1694
t 1691
aul@@ 1690
kattuk 1686
itsivautaaq 1678
ilauq@@ 1675
nutaraq 1674
lugit 1669
arunn@@ 1657
ap@@ 1652
anginnik 1645
pat 1644
ujunik 1643
ait 1631
tavvani 1623
2004 1621
iit 1619
alir@@ 1609
lirinirmut 1609
pij@@ 1600
iqqanaijaqti@@ 1597
atur@@ 1596
atta@@ 1595
tillugit 1592
simajuq 1590
ikk@@ 1588
tausan 1588
kiinaujanik 1587
mangaata 1582
akka 1572
aliq@@ 1569
ilu@@ 1568
apiqqutiit 1566
arniar@@ 1565
ima@@ 1558
lirijikkut 1557
unga 1547
mmata 1540
sau@@ 1540
ulauq@@ 1538
arni@@ 1537
taun@@ 1528
nu@@ 1521
luta 1514
mu@@ 1514
katimajiit 1508
mmi 1506
2005 1503
simajunik 1502
maligaliuqti 1492
liq@@ 1489
ujunut 1489
kiinauj@@ 1480
; 1476
anginnut 1473
iat 1472
luni 1460
amut 1453
maatsi 1453
us@@ 1445
siman@@ 1438
inng@@ 1435
tauv@@ 1429
saqqi@@ 1428
tauj@@ 1427
aqtutik 1426
kanatami 1424
aqpuq 1423
ini@@ 1412
k 1411
8 1409
maligaq 1409
unng@@ 1406
tukisi@@ 1405
nun@@ 1402
alaur@@ 1401
angiqtut 1401
uma@@ 1400
aqtunik 1397
attigu 1397
0@@ 1388
tar@@ 1387
ilinniar@@ 1383
arvi@@ 1380
maanna 1380
mali@@ 1378
put 1378
auti@@ 1373
7 1368
aqtuq@@ 1365
iq 1363
tunga 1363
9 1361
5@@ 1359
attu@@ 1359
paal 1359
2@@ 1357
apir@@ 1355
anginn@@ 1350
maklain 1349
mmari@@ 1349
taima 1348
ullu 1336
aqq@@ 1335
uqar@@ 1329
ak 1328
mangaaq 1323
taujut 1323
armata 1322
kajusi@@ 1322
arraagu@@ 1318
mmut 1318
mu 1318
apiqqut 1315
tavut 1311
tu 1311
iqqanaij@@ 1310
iqqanaija@@ 1303
titti@@ 1301
isuma@@ 1300
kati@@ 1298
unut 1297
ri@@ 1296
inginni 1295
iqaluit 1294
ma 1294
qimirr@@ 1291
vut 1291
8@@ 1290
mis 1289
iqqittuq 1288
pijjutigillugu 1288
akku 1286
arniaq@@ 1284
uk@@ 1284
giar@@ 1283
tainna 1283
ula@@ 1281
juti@@ 1278
uqalima@@ 1274
7@@ 1273
la@@ 1272
arniq 1267
q 1265
puq 1262
tur@@ 1260
ulu@@ 1260
innik 1253
4@@ 1252
apiqquti@@ 1250
juma@@ 1243
6@@ 1242
arij@@ 1241
-@@ 1240
inganut 1240
ikkut 1238
maligaksaq 1236
man@@ 1234
alu 1231
9@@ 1230
kamagij@@ 1230
pimmari@@ 1230
quj@@ 1230
issivautaaq 1228
uq 1220
aqput 1218
pijunn@@ 1214
inni 1213
juq 1213
innut 1211
iniar@@ 1209
uju@@ 1204
nir@@ 1202
pinasu@@ 1200
ra@@ 1198
ministait 1194
taimaimmat 1188
min@@ 1187
utiit 1186
aniq@@ 1183
auv@@ 1182
ta 1181
ittuq 1178
ujunit 1178
armi 1177
ministaa 1175
qauj@@ 1174
amisu@@ 1171
atsi@@ 1168
katimaj@@ 1165
unik 1163
angu@@ 1159
tama@@ 1147
aull@@ 1146
ilinniaq@@ 1140
qar@@ 1138
maniittuq 1137
tillugu 1137
pigi@@ 1136
piliriang@@ 1136
ikaju@@ 1133
immaqa 1133
mmik 1133
inirmut 1127
niru@@ 1125
utta 1125
utinik 1124
aqtuni 1123
gaj@@ 1123
aujuq 1121
si 1119
nalunaiq@@ 1118
tunit 1118
aujunik 1116
gavama@@ 1116
inut 1115
inir@@ 1113
aruma@@ 1112
attigut 1103
uqausir@@ 1101
arv@@ 1100
ilagiarut 1100
taimaak 1098
tinut 1098
uta@@ 1096
ullu@@ 1095
ru@@ 1093
saq@@ 1093
ariaqar@@ 1091
tutik 1091
tamaani 1089
ilanga 1088
siv@@ 1086
makliin 1083
ali 1082
ittut 1079
uni@@ 1077
3@@ 1076
aqtunga 1074
simaju@@ 1074
tara 1074
qaujimaj@@ 1071
rij@@ 1071
tus@@ 1071
kiinaujaq@@ 1068
iniaq@@ 1062
angir@@ 1056
apiqqu@@ 1053
up@@ 1052
ku@@ 1051
aar@@ 1047
iti@@ 1046
ingani 1044
lauq@@ 1043
usi@@ 1042
auq@@ 1041
piq@@ 1040
uqausirij@@ 1039
arasu@@ 1033
aqtau@@ 1029
maligaliuqti@@ 1029
aa 1028
unikka@@ 1025
giv@@ 1024
mm@@ 1024
aula@@ 1020
na@@ 1019
ministaujuq 1016
anganik 1014
arnik 1014
paanapas 1014
katittugit 1013
ajj@@ 1007
inganik 1003
inik 1003
lima@@ 1000
mmi@@ 998
arniq@@ 997
ulluni 996
pilirivi@@ 995
angiqpisii 991
una 991
iniq@@ 989
tugut 989
ilaur@@ 987
sir@@ 984
10 981
aaqqik@@ 981
ainn@@ 981
iglu@@ 979
att@@ 977
aqtugut 975
utigij@@ 974
attar@@ 973
lirij@@ 968
tamatumunga 968
annik 967
aun@@ 967
ilinni@@ 967
sur@@ 967
apiqqutiga 964
atuag@@ 963
aks@@ 959
ikajur@@ 959
mak@@ 959
qan@@ 959
ill@@ 956
nunalingni 956
ai@@ 954
utinut 953
sait 952
anir@@ 951
aruti@@ 948
tun@@ 946
auju@@ 945
nalunair@@ 944
tamatuminga 944
alli@@ 943
jaak 942
mmit 941
aaq@@ 940
qullugit 940
siq@@ 940
suli@@ 940
innit 937
ga@@ 936
an 934
manga@@ 933
nuqq@@ 933
atuqtu@@ 932
utit 925
nunalinnit 924
angi@@ 923
simajunut 922
angani 917
tunij@@ 916
iluani 913
aqtitti@@ 912
anginni 911
uniar@@ 910
1@@ 908
ulaur@@ 904
iniq 900
kiinaujat 900
simag@@ 898
apiqqutit 895
pp@@ 895
angajuqqa@@ 892
minista@@ 892
utik 890
ami@@ 889
mik@@ 889
ts@@ 889
armut 888
ttu@@ 888
maligaliuqtiup 885
nalli@@ 885
isumaalu@@ 884
maligaliurvimmi 884
&quot; 883
unir@@ 883
luti 882
liur@@ 880
simaliq@@ 879
aqpat 877
pigiaqti@@ 877
uki@@ 874
lirijiit 872
ja@@ 871
mai 871
pata 869
inginnit 868
tinik 867
kajusijuq 866
iqar@@ 861
alakannuaq 860
aluar@@ 860
mal@@ 860
irn@@ 858
sin@@ 858
qauji@@ 857
lu 855
namminiq 855
qimirruj@@ 853
ini 852
tik@@ 852
minik 850
aqtumik 848
ks@@ 848
attut 847
unikkaali@@ 845
unit 845
sil@@ 844
simammata 844
niq@@ 843
13 842
isu@@ 841
attaq@@ 839
tura@@ 839
anu 838
aqtunut 838
ji@@ 838
ammata 835
inasu@@ 834
unni@@ 834
iku@@ 833
tamakkuninga 833
qaujimajunga 831
uniq@@ 830
kangiq 829
palli@@ 828
inginn@@ 827
aut@@ 825
ummat 825
ilinniaqti@@ 824
14 822
anni 822
nunaliujut 822
15 820
atuliquj@@ 820
ilang@@ 819
isumagij@@ 819
anganut 818
anginnit 818
anirmut 817
armik 815
aug@@ 815
gavamakkunnut 813
kiuj@@ 813
nali@@ 813
annut 812
titiraq@@ 811
ingi 810
mma@@ 810
nirmut 809
nunalinnut 804
tung@@ 802
im@@ 801
mang@@ 801
agu@@ 799
all@@ 798
maann@@ 797
sanaj@@ 797
illutik 796
piliriv@@ 795
pillugu 795
00@@ 794
marru@@ 794
nalunaiqsi@@ 792
pijariiq@@ 791
qang@@ 791
utau@@ 791
atausi@@ 789
lutit 789
liri@@ 787
armi@@ 786
titau@@ 786
arnirmik 781
innar@@ 781
turaang@@ 780
tuk@@ 779
katima@@ 778
anni@@ 777
aur@@ 777
unginn@@ 777
ulaajuk 775
aqtillugit 774
jju@@ 772
angiqpugut 771
12 770
aqattar@@ 770
sij@@ 770
laur@@ 768
qanuili@@ 768
ikajuqtu@@ 767
ilinniaqtu@@ 767
uri@@ 764
11 762
aqpugut 762
arnut 762
inirmik 758
qatti@@ 758
ministamut 756
utigi@@ 756
aqpunga 755
atau@@ 754
illuni 752
kama@@ 751
ni 751
tiq@@ 751
aniar@@ 750
quviasu@@ 750
urn@@ 749
tauju@@ 748
akkit 747
pa 746
katimajjutissaq 745
lirijikk@@ 745
pugut 745
suurlu 745
/ 744
13@@ 743
titir@@ 743
maligaliurvimmut 740
12@@ 738
akuni@@ 738
app@@ 737
ats@@ 737
iqalunni 737
liuq@@ 737
15@@ 736
taujuq 736
iks@@ 735
tigu@@ 734
pilirivvi@@ 733
10@@ 732
ilinniarvi@@ 732
pijari@@ 732
ilagij@@ 731
iqq@@ 731
pijjutiq@@ 731
aluk 730
punga 730
22 729
iqaq@@ 728
16 727
limaat 727
tiit 727
aqpa 726
mmar@@ 726
uqau@@ 725
ving@@ 724
katujjiqatigi@@ 723
taulauq@@ 722
kiinaujaqaqti@@ 719
pinngu@@ 718
simanng@@ 717
unikkaangit 717
inni@@ 716
nunavu@@ 716
uvani 716
pu@@ 715
20 714
ajar@@ 714
katimajiralaanut 714
p 714
akkannir@@ 711
nunavuumi 710
atig@@ 709
junn@@ 708
tusaq@@ 707
anngi@@ 706
utig@@ 704
simav@@ 703
unni 702
taug@@ 701
sanut 700
iqqanaijaq@@ 699
asingit 698
atik 698
sanik 698
ilitaqsiniq 697
pivalli@@ 697
aqsi@@ 696
aulauq@@ 696
h@@ 696
ummata 696
-ng@@ 695
aup 695
tiki@@ 694
iaqtu@@ 693
riaq@@ 693
nuta@@ 692
ip@@ 691
ujumik 690
aipp@@ 689
tuutu 689
simavut 688
lirijikkunnut 686
pilir@@ 684
quti@@ 681
tigu 681
-nik 680
aujunut 680
tir@@ 680
tin@@ 679
alla@@ 677
inunnut 677
ittunik 677
tausimajut 677
uqarunn@@ 677
ullutik 676
innir@@ 675
ita@@ 675
mma 675
simailak 675
simajunit 675
inunnik 674
piv@@ 674
18 673
aaqqi@@ 673
para 673
uqsualu@@ 673
akiliq@@ 672
angat 672
,000 671
maj@@ 671
pilirij@@ 671
nakurmii 669
init 668
kiulvin 668
atigut 666
ilinniaqtulirijikkut 666
mili@@ 666
ugut 666
iituaq 665
nuvipiri 665
ajjigi@@ 664
aqattaq@@ 664
uqausiri@@ 664
.@@ 663
alaralak 663
sivulliqpaami 663
ittunut 662
tauq@@ 661
ulluta 661
vunga 661
ikajuusi@@ 660
itsivautaa 660
uvit 660
kisu@@ 659
maligaksanit 659
nattiq 659
ajut 658
iliq@@ 657
uqausinga 657
til@@ 656
ull@@ 656
kkannir@@ 655
simal@@ 655
simammat 655
tavv@@ 655
unnik 652
iqanaij@@ 651
ujj@@ 651
inginu 650
avi@@ 649
iqalu@@ 649
saqq@@ 649
arninginnut 648
ujar@@ 648
agluukkaq 647
arama 647
tit 647
atiq@@ 646
timi@@ 646
suung@@ 644
tuinnar@@ 643
-1 642
katimajirala@@ 642
niri@@ 641
qaujigi@@ 641
uvanga 640
ittunit 639
unnaraj@@ 637
parn@@ 636
akkann@@ 633
ammari@@ 633
ministaup 633
17 632
ilagiarutiit 632
katimaji@@ 632
uniaq@@ 632
utti@@ 628
uvut 628
anginngittut 627
tamakkununga 627
tuu@@ 626
jau@@ 624
kamagijaq@@ 624
pijittir@@ 624
uqauti@@ 623
aij@@ 622
kiinaujaqta@@ 622
lugi 622
nutarak 621
taujunn@@ 621
tik 621
igi@@ 620
parnauti@@ 620
piliriqatigi@@ 620
arraagumi 619
ksa@@ 619
19@@ 618
naamma@@ 618
qul@@ 618
tinn@@ 617
asuar@@ 616
kin@@ 615
lunga 614
21 613
pir@@ 613
&apos; 612
tauniar@@ 612
gama 611
mmangaata 610
piliriar@@ 610
simalir@@ 610
ama@@ 609
annit 609
ittinni 609
anngu@@ 608
taik@@ 608
akitturi@@ 605
gavam@@ 605
kanataup 604
liriniq 603
iqqanaijaqtinut 602
ka@@ 602
tugu 602
sun@@ 601
aqqu@@ 600
katiman@@ 600
aniaq@@ 599
itta@@ 599
inngi@@ 598
itsivauta 598
avittuq@@ 597
unu 596
kiinaujatigut 595
pijitsir@@ 595
liuna 594
kka 593
nunaq@@ 593
uqausiqar@@ 591
17@@ 590
18@@ 590
mamianaq 590
tinit 590
19 589
tusa@@ 589
simajuq@@ 587
asinginnik 586
ng@@ 586
qujannamik 586
utaqq@@ 586
16@@ 585
ivi@@ 585
apiqqusi@@ 584
qanuiling@@ 584
qanuiliur@@ 584
unnaqtut 584
mijut 583
ut. 583
uvuq 583
amit 582
ingita 582
utir@@ 582
agut 581
isi@@ 581
titiqqait 581
anu@@ 579
inirmi 579
iqattaq@@ 578
tusaqti@@ 578
pinasuarusi@@ 577
20@@ 576
inuusi@@ 576
aksa@@ 575
angata 575
kiinaujalirinirmut 575
araj@@ 574
piliriqatiq@@ 574
ilinniaqtulirinirmut 573
pukirnak 573
ita 571
titiqq@@ 571
tunisi@@ 571
uqq@@ 571
uumaju@@ 571
ajji@@ 567
attarn@@ 567
aktu@@ 566
angujut 565
katimmajjutiit 565
maligaliuqtit 563
atigi@@ 562
tauningit 562
missaanut 559
piquj@@ 559
sanit 558
gu 556
liriji@@ 556
quvi@@ 556
tilluta 556
tuinnaq 556
ilir@@ 555
llu 553
ap 552
gut 551
qujannamiingujutit 551
tang@@ 551
viit 551
isuli@@ 550
taqq@@ 550
akitujunut 549
aktut 549
amis@@ 549
unirmut 549
9-@@ 548
aratta 548
ariv@@ 548
jut@@ 548
taujunik 548
qaujiman@@ 547
king@@ 546
nak@@ 545
ugu 545
ukiuqtaqtumi 545
uqti@@ 545
arraani 544
minis@@ 544
rn@@ 544
aqtugu 543
suq@@ 543
takunn@@ 543
ai 542
5-@@ 541
katimajingit 541
taujariaq@@ 541
angiju@@ 539
ingat 539
jumik 539
sivulliqpaamik 539
tug@@ 539
allar@@ 537
guma@@ 537
anngittu@@ 536
asunn@@ 536
tumi 536
kainn@@ 535
ujuni 535
agu 534
aqtavut 534
kaantura@@ 534
mini@@ 534
ppata 534
ukk@@ 534
14@@ 533
iluunn@@ 533
iqattar@@ 533
tinni 532
uliq@@ 531
pigiar@@ 530
pili@@ 529
nut 528
saq 528
ss@@ 528
akainn@@ 527
naasautaa 527
upinnarani 527
uqalimaarniq 527
ullugu 526
ilinniaqtiit 525
aqatta@@ 524
arvaalluk 524
jut 523
rata@@ 523
apiqqutinut 521
arju@@ 521
ittumik 521
pivalliati@@ 521
allu@@ 519
avit 519
utingit 519
ikku@@ 518
iqqanaijaqtiit 518
unngi@@ 517
kiinaujanit 516
aqtaun@@ 515
suni 515
takuj@@ 515
asa@@ 514
kanata@@ 514
200@@ 513
lug@@ 513
igu@@ 512
giaqar@@ 511
gunn@@ 511
marruunnik 511
niuvi@@ 511
ikainn@@ 510
piliriarij@@ 510
anngittut 509
aqtummari@@ 509
arnit 509
asuung@@ 509
ulauqtut 509
aqtillugu 507
ipp@@ 507
allavv@@ 506
titiq@@ 506
tukisigiaruti@@ 506
kiinaujanut 505
aaqqigiaq@@ 504
arianga 504
uvvalu 504
angiqpisi 503
armit 503
illuq@@ 503
ittuni 503
mallunga 503
uqaqatiq@@ 503
angirr@@ 502
ppat 502
simang@@ 502
aqtuta 501
asijjiq@@ 501
ujumut 501
ivut 500
maliq@@ 500
nunal@@ 500
ugaj@@ 500
ullugit 500
alaurmat 499
autiit 499
katimmajjutiksaq 499
manng@@ 499
nalun@@ 499
uqqu@@ 499
arraag@@ 496
marruuk 496
aqtilluta 495
aulluni 495
iju@@ 495
taku@@ 495
galu@@ 494
pijjutigillugit 494
suti 494
annir@@ 493
aqtitau@@ 493
ijju@@ 493
tuksir@@ 493
angittu@@ 492
ugi@@ 492
vara 492
ajunik 491
simajuni 491
taikkununga 490
taujunut 490
7-@@ 487
apput 487
ilagi@@ 487
iqs@@ 487
pijjuti@@ 487
angijuqqa@@ 486
ass@@ 486
ikajuru@@ 486
iqsau@@ 486
its@@ 486
taimailing@@ 486
kuapuriis@@ 485
ulauqtuq 485
arniaqtut 484
arunnaq@@ 484
atuqtau@@ 484
iqta@@ 484
tinnut 484
amisut 482
aralu@@ 482
ilagiar@@ 482
tusaajitigu 482
ajur@@ 481
matu@@ 481
pak@@ 481
aulaur@@ 479
mit@@ 478
uqaqti@@ 478
pular@@ 477
tini 477
tuinnaqtunga 477
aksualuk 476
qaujisaq@@ 476
qimirru@@ 476
tunngav@@ 476
akituju@@ 475
ammat 475
anngimmat 475
igiaq@@ 475
ilu 475
nunavummi@@ 475
paa 475
attuq 474
tangit 474
utiks@@ 474
isi 473
ministauv@@ 473
tainn@@ 473
attinni 472
ilima@@ 472
ingata 472
tuki@@ 471
sivun@@ 470
uqaujj@@ 470
uqtu@@ 470
vik 470
alaurmata 469
lirijikkunnit 469
qalluna@@ 469
miut 468
mmanga@@ 468
ullunga 468
arngat 467
uqaqtiup 466
anga@@ 465
angimmata 465
n 465
va@@ 465
6-@@ 464
utillugu 464
maligaliuq@@ 462
miksaanut 462
tanga 462
ulli 462
uqall@@ 462
valli@@ 462
ingirr@@ 461
qujannamiik. 461
tillu 461
tungilinga 461
apirij@@ 460
gavamakk@@ 460
qanuittu@@ 460
taimann@@ 460
atiliuq@@ 459
immat 459
qujannamii 459
asi 458
atuqtauv@@ 458
auliq@@ 458
itu@@ 458
piliriangu@@ 458
sivalli@@ 458
tullia 458
aki@@ 457
ittunga 457
nalunaij@@ 457
pavut 457
simavuq 457
ammar@@ 455
qau@@ 455
akitujuutinut 454
utirluta 454
gaasali@@ 453
jumaj@@ 453
taakkununga 453
utit@@ 453
2001 452
alauqtut 452
ilinniarv@@ 452
qullugu 452
ua 452
angiqtau@@ 451
arningit 451
kkann@@ 451
mmangaaq 451
taulaur@@ 451
uqattaq@@ 451
jugut 450
sivulliqpa@@ 450
sutik 450
uvikk@@ 450
iling@@ 449
ttinnut 449
aanniaqtulirijikkut 448
ilaannikkut 448
tukisigi@@ 448
unngittuq 448
pigiaqtitti@@ 447
pijariir@@ 447
qaujinasu@@ 447
tta@@ 447
unnarmangaaq 447
arti@@ 446
asinginnut 446
ugaluaq 446
uqausissangit 445
aqt@@ 444
nam@@ 443
qatsi@@ 443
gavamatuqakkut 442
pijju@@ 442
simajavut 442
kiaq 441
pivalliaju@@ 441
attunik 440
kinguv@@ 439
tinnik 439
aminik 438
ara@@ 438
aulan@@ 438
aullutik 438
iaqtuq 438
taakkuninga 438
in 437
sig@@ 437
simajumik 437
taal@@ 437
ttinni 437
paraun 436
uqaus@@ 436
aqpalli@@ 435
irmut 435
saqqiti@@ 435
tauni@@ 435
tauniaq@@ 435
titiqqaq 435
unnir@@ 435
25 434
aummat 434
kiggaqtu@@ 434
nik 434
sivuliqti@@ 434
katimajinginnut 433
angimmat 432
arlutik 432
saqqiq@@ 432
asijji@@ 431
irij@@ 431
qaujigiar@@ 431
amisururi@@ 430
qil@@ 430
uninga 430
amisunik 429
artu@@ 429
iaqtut 429
ilagiarutit 429
iliqqusi@@ 429
malik@@ 429
nal@@ 429
qaujikk@@ 429
taimaittu@@ 429
autti@@ 428
aqquti@@ 427
aqullugit 427
arninganik 427
aqattarn@@ 426
lirinirmik 426
uqattar@@ 426
ataani 425
uqaqqaugama 425
aujunit 424
pingajuat 424
simatti@@ 424
uuttuutigilugu 424
lik 423
tauninginnut 423
tusar@@ 423
angiqatigi@@ 422
ksaq@@ 422
tutuu 422
uattiaru 422
s 421
titsi@@ 421
ulu 421
attauq 420
attinnik 420
ingini 420
taikani 420
katimaniq@@ 419
agit 418
piju@@ 418
piliriving@@ 418
30 417
ilis@@ 417
inniar@@ 417
ullutuinnaq 417
ungali 417
armangaaq 416
atsa@@ 416
1-@@ 415
aluarmangaata 415
katimajjutiksait 415
unnginn@@ 415
utaujut 415
ajja@@ 414
inu 414
piliriq@@ 414
unnaqq@@ 414
aksaq@@ 413
nakkajjau 413
arialiit 412
simagama 411
uqatta@@ 411
aqtunit 410
gianga 410
ittuq@@ 410
nani@@ 410
ukunani 410
ulir@@ 410
una@@ 410
uvattinnut 410
aqpata 409
arngata 409
auta@@ 409
imialu@@ 409
itsi@@ 409
maligaliuqtinut 409
nunavungmi 409
uu@@ 409
aaqqit@@ 408
angajuqqaangujuq 408
qut@@ 408
anniq@@ 407
aqtaq@@ 407
iqqa@@ 407
tusaaj@@ 407
umaj@@ 407
aquj@@ 406
tauvalli@@ 406
angiqatigiig@@ 405
atuliq@@ 405
tt@@ 405
pilirivv@@ 404
ttinnik 404
ujumit 404
arninginnik 403
irata@@ 403
unnarmanga@@ 403
angittut 402
apiqquti 402
isumali@@ 402
maligaliuqtiujuq 402
piviq@@ 402
utin@@ 402
utauj@@ 401
niruaqtau@@ 400
ttig@@ 400
uvani@@ 400
ilaak 399
inniq@@ 399
niuvir@@ 399
uqalimaaqtauningit 399
aqtur@@ 398
pingasu@@ 398
tunu 398
uluni 398
aivviq 397
angujuq 397
arraagutamaat 397
ilagiaruti@@ 397
ittugut 397
ammaluttauq 396
ha@@ 396
ingi@@ 396
nunaliujuni 396
katimmaj@@ 395
kku@@ 395
unga@@ 395
iqqanaijaqtita@@ 394
taqqi@@ 394
ttinirmut 394
aal@@ 393
akku@@ 393
atitti@@ 393
qangatasu@@ 393
annginn@@ 392
git 392
qaujij@@ 392
iarmata 391
kiug@@ 391
taiviti 391
tamainnut 391
arninga 389
aulatti@@ 389
li 389
0-@@ 388
arniaqtu@@ 388
ikajuuti@@ 388
illi@@ 388
aat 387
atuinnauti@@ 387
illuit 387
imann@@ 387
unnaqullugit 387
unnit 387
apiqqutiq@@ 386
ksau@@ 386
utik@@ 386
arraagunut 385
arunnar@@ 385
tusaqtitti@@ 385
tut@@ 385
aiv@@ 384
sivulli@@ 384
iqqanaijaaqta@@ 383
kiinaujalir@@ 383
tavvani@@ 383
2002 382
nu 382
upp@@ 382
innatuq@@ 381
kan@@ 381
maligaliurvi@@ 381
tumik 381
4-@@ 380
angittuq 380
kiinaujalirij@@ 380
pig@@ 380
quvv@@ 380
utauv@@ 380
uung@@ 380
aujuni 379
ikajuqtau@@ 379
maligaq@@ 379
ujumi 379
it. 378
aaqqigiar@@ 377
tukisin@@ 377
aksaq 376
anngilaq 376
piliriari@@ 376
siur@@ 376
takka 376
unnaqtunik 376
akkunnut 375
alung@@ 375
aqai 375
asinginnit 375
attinnut 374
ausi@@ 374
avv@@ 374
pigiaqtitaq 374
sauv@@ 374
tav@@ 374
aipiq 373
illuunniit 373
paat 373
pijumaj@@ 372
simagatta 372
akaunngiliur@@ 371
atausiq 371
iksivauta@@ 371
taak@@ 371
uqausilirinirmut 371
utinit 371
ajjigiinng@@ 370
iniup 370
matuing@@ 370
nalunairsi@@ 370
tuinnariaq@@ 370
tukimu@@ 370
usu@@ 370
ajurn@@ 369
inganu 369
maligaliuqtiujut 369
pur@@ 369
suru@@ 368
attau@@ 367
kingulliqpa@@ 367
uqsu@@ 367
anngat 365
attunut 365
qiniq@@ 365
unilu 365
unniir@@ 365
urata@@ 365
uvannut 365
vig@@ 365
aqpak@@ 364
inniaq@@ 364
makpigaq 364
parnagu@@ 364
r 364
ul 364
augama 363
inginnu 363
katujj@@ 363
qangakkut 363
unnut 363
aliit 362
attutik 362
matuir@@ 362
mijuq 362
simaningit 362
sivuliqtii 362
taimanna 362
tauq 362
attan@@ 361
ilinniaqtitti@@ 361
saqqita@@ 361
anngimmata 360
anngittuq 360
apiri@@ 360
kiin@@ 360
luunniit 360
mij@@ 360
simallutik 360
atuinnar@@ 359
ilitaqsi@@ 359
inung@@ 359
katimajjuti@@ 359
piraj@@ 359
tukis@@ 359
25@@ 358
angita 358
ititti@@ 358
sug@@ 358
suma 358
kialvin 357
taus@@ 357
amma@@ 356
lluta 356
mappiqtugaq 356
nit 356
tuni@@ 356
ugalu@@ 356
uqaqatigi@@ 356
uqausiksangit 356
0 355
aqtara 355
arniarmata 355
atsi 355
gavamakkungit 355
piluaqtumik 355
30@@ 354
8-@@ 354
aanniaqtu@@ 354
avati@@ 354
qinir@@ 354
suuqaimma 354
uttigu 354
akiq@@ 353
anig@@ 353
nammin@@ 353
uqausiks@@ 353
aqtittin@@ 352
assa@@ 352
iqatti@@ 352
nunaling@@ 352
qat@@ 352
qattar@@ 352
talli@@ 352
uli@@ 352
umi@@ 352
,000.00 351
assi 351
tikku@@ 351
sivumu@@ 350
talu 350
tinu 350
aqtiit 349
uqaqqaummat 349
ajuq@@ 348
apiqqutiksaq@@ 348
inuktitut 348
katimajiralaangujut 348
nunavuu@@ 348
tili@@ 348
atiqar@@ 347
qanutigi 347
aip@@ 346
apiqqutig@@ 346
ikkannir@@ 346
tavvunga 346
ummangaata 346
illugu 345
summat 345
tapaarjuk 345
uningit 345
angi 344
aqpara 344
armangaata 344
kamaj@@ 344
kiinaujali@@ 344
maligaliuqtiuq@@ 344
mangaatta 344
aulaj@@ 343
ausimajut 343
mall@@ 343
qima@@ 343
simajugut 343
unniiq@@ 343
utini 343
aanniaq@@ 342
aqtutit 342
inirmit 342
parnak@@ 342
kiujju@@ 341
limaanut 341
matuiq@@ 341
taann@@ 341
titirar@@ 341
ungi@@ 341
pivallian@@ 340
ullumi@@ 340
vakka 340
kamag@@ 339
kiinaujaliur@@ 339
naammas@@ 339
sivuniks@@ 339
unnaqsi@@ 339
iss@@ 338
mann@@ 338
mmu@@ 338
tujurmi@@ 338
ulaajuq 338
arninganut 337
iqatta@@ 337
taunir@@ 337
ttin@@ 337
50@@ 336
aujariaq@@ 336
ktu@@ 336
uqari@@ 336
uqausiriqqauj@@ 336
pukirnaq 335
,000@@ 334
asinginnillu 334
mangaat 334
amisuuningit 333
ikajuqti@@ 333
illuta 333
ingirraju@@ 333
piusi@@ 333
qaujimajatuq@@ 333
taimanng@@ 333
akingit 332
apiqu@@ 332
qujannami@@ 332
tamajja 332
unngimmat 332
10-@@ 331
2000 331
arni 330
innga@@ 330
nunata@@ 330
piqasi@@ 330
qimirrun@@ 330
tumut 330
unikkaangat 330
26 329
31 329
isumaq@@ 329
ministangannut 329
pitaqariaq@@ 329
tauninga 329
vuq 329
aanni@@ 328
angittunga 328
jumavunga 328
23 327
aanniavili@@ 327
gavamakkunnit 327
innatuqait 327
niruar@@ 327
paliisi@@ 327
saqqitti@@ 327
unngittu@@ 327
aaqq@@ 326
akaungiliur@@ 326
alauqtuq 326
igunn@@ 326
ilinniati@@ 326
kiinaujaqtur@@ 326
mat@@ 326
qaujimavunga 326
tuinnait 326
apiquti@@ 325
kingulliqpaami 325
maij@@ 325
tit@@ 325
tutsir@@ 325
aqtausimajut 324
piuniq@@ 324
tal@@ 324
ttiar@@ 324
uqaruma@@ 324
autiq@@ 323
ilinniarni@@ 323
juq@@ 323
jutit 323
kam@@ 323
pijariaq@@ 323
alakkannuaq 322
atuutiq@@ 322
ikajuqsuq@@ 322
usa@@ 322
maligak@@ 321
nalliukkuma@@ 321
parnag@@ 321
867 320
gasu@@ 320
giaruti@@ 320
miniit 320
qanga 320
simavugut 320
tusarumin@@ 320
vimmi 320
aanniar@@ 319
amig@@ 319
arvik 319
irju@@ 319
tigillugu 319
uja@@ 319
ingn@@ 318
itta 318
mani@@ 318
naammasaqtut 318
utitaq@@ 318
vimmut 318
100@@ 317
2-@@ 317
aulattinirmut 317
kku 317
unikk@@ 317
kajusivuq 316
nunavummut 316
uqaal@@ 316
atunit 315
aulat@@ 315
maligassaq 315
tukisinaliqtissimajuq 315
unnarmangaata 315
pakka 314
asinginni 313
ikkunnut 313
ilinniaqtinut 313
inga@@ 313
jutiq@@ 313
parnau@@ 313
tigilugu 313
tusag@@ 313
lirinir@@ 312
naas@@ 312
sukk@@ 312
taikku@@ 312
taimaili@@ 312
taimanna@@ 312
tamakkun@@ 312
taul@@ 312
tuit 312
ullumimut 312
aann@@ 311
ingitigut 311
ittu 311
kamisin@@ 311
pilirianut 311
titiqqanik 311
ukua 311
aksur@@ 310
jutiit 310
maligaliurvik 310
piliriat 310
qaujimajatuqangit 310
titiraqsimajut 310
aqtugit 309
arnirmit 309
katimaji 309
kiulvan 309
qaujiguma@@ 309
unnaqp@@ 309
atuni 308
ilitarij@@ 308
ivjarutailak 308
tamatuma 308
tuksi@@ 308
isumaaluuti@@ 307
qaujig@@ 307
uriaq@@ 307
26@@ 306
arluni 306
iqal@@ 306
lui 306
taassuminga 306
unnu 306
uqausiksaq@@ 306
aanniasiuqti@@ 305
amisukall@@ 305
amisuuniq@@ 305
asung@@ 305
atuinnau@@ 305
atuqtauj@@ 305
isumaaluutiq@@ 305
maligaksait 305
nunavummiut 305
pingaju@@ 305
qanuimmat 305
sivu@@ 305
uvi@@ 305
angunasu@@ 304
apirijuma@@ 304
igl@@ 304
ilag@@ 304
mmagu 304
taujumik 304
agi@@ 303
arnait 303
niruaqtu@@ 303
nunasi@@ 303
parna@@ 303
ping@@ 303
,@@ 302
anirmik 302
asijjir@@ 302
givara 302
immata 302
pigiaq@@ 302
sila@@ 302
silauq@@ 302
taullutik 302
tusauma@@ 302
aimmata 301
ana@@ 301
ati 301
jumut 301
nutaaq 301
qujannamiir@@ 301
taulutik 301
tittin@@ 301
unniq@@ 301
3-@@ 300
igatta 300
alauqput 299
alima@@ 299
arr@@ 299
aulattijiit 299
ilangat 299
piku 299
qanuittunik 299
taakku@@ 299
utsi@@ 299
aqqa 298
aulaniq@@ 298
ili 298
iliqqusituq@@ 298
iqqau@@ 298
kaanturaak@@ 298
kis@@ 298
tauqattar@@ 298
ungit 298
1-1 297
galuar@@ 297
illar@@ 297
isumagi@@ 297
tuta 297
unasu@@ 297
auvuq 296
gav@@ 296
ilangi 296
kivallirmi 296
sanajau@@ 296
mmij@@ 295
siniq 295
suqqu@@ 295
tunngasugit 295
viq@@ 295
allatti 294
gavit 294
ikkalu@@ 294
ilali@@ 294
kigg@@ 294
mappiqtug@@ 294
tallimanut 294
ttauq 294
tuar@@ 294
alira@@ 293
ariaqarmata 293
aujunn@@ 293
inuttitut 293
kaju@@ 293
tussir@@ 293
aanniaqtulirinirmut 292
angirraq@@ 292
ikajuqsu@@ 292
pit@@ 292
titiraqti 292
tuutuu 292
alirij@@ 291
innaq 291
maligaliurv@@ 291
ikarr@@ 290
uqtut 290
utinginnut 290
uummaqquti@@ 290
aanniq@@ 289
angin@@ 289
arnaq 289
ilaq@@ 289
maligarmik 289
minit 289
nuqqangakainn@@ 289
tausimajuq 289
tusaajaqtuqsimajunik 289
akiliqsu@@ 288
angajuqqaap 288
ittinnik 288
nami@@ 288
pus@@ 288
tiga 288
tigi@@ 288
aqtumut 287
attaqtut 287
auniar@@ 287
ik. 287
jaan 287
katimani@@ 287
kiujjutit 287
saugaj@@ 287
titi@@ 287
ujji@@ 287
akkanniq@@ 286
angajuqqaang@@ 286
aturuma@@ 286
tamaani@@ 286
unngin@@ 286
uqalimaaqtaun@@ 286
utili@@ 286
akir@@ 285
anguv@@ 285
jiit 285
katiq@@ 285
kiggatuq@@ 285
maligait 285
sanirv@@ 285
ura@@ 285
va 285
aanniaqarnangittu@@ 284
angajuqqaat 284
gavamalirij@@ 284
juuni 284
liit 284
nunalinn@@ 284
piliriaq 284
sum@@ 284
unngittut 284
50 283
qai 283
qaujikka@@ 283
qitiqquu 283
ttinnit 283
ujjir@@ 283
uniaqtu@@ 283
apiqsuq@@ 282
assur@@ 282
maligali@@ 282
piiq@@ 282
qaujimatti@@ 282
tanginnik 282
uvagut 282
vugut 282
aanniav@@ 281
arviq@@ 281
gas@@ 281
ilisaij@@ 281
isumaliur@@ 281
kiujjuti@@ 281
mapsalak 281
palais 281
pat@@ 281
qat 281
qaujisaqtau@@ 281
umajunga 281
uqsual@@ 281
auninginnut 280
immini@@ 280
maligatsaq 280
malir@@ 280
manir@@ 280
muung@@ 280
tta 280
tukisigiar@@ 280
tunijau@@ 280
angiruti@@ 279
apiqqutigij@@ 279
ittauq 279
kingulliqpaaq 279
salu@@ 279
san 279
tai@@ 279
tiri@@ 279
tuavirn@@ 279
akaunngiliuruti@@ 278
apirijumajara 278
giiq@@ 278
lirinirmullu 278
niuviq@@ 278
ataq@@ 277
gil@@ 277
illunik 277
inngu@@ 277
inulirijikkut 277
inutuq@@ 277
ariali@@ 276
ingmi 276
kikkutuinnarnut 276
nalu@@ 276
piliriaks@@ 276
aummata 275
manirmut 275
piit 275
pinasuag@@ 275
piruqpalli@@ 275
ttiniq 275
utiqar@@ 275
aqtang@@ 274
aqullugu 274
ataujut 274
ingnik 274
maligalirij@@ 274
na 274
tamakku@@ 274
tauluni 274
iqn@@ 273
nalunaiqsij@@ 273
pianik@@ 273
pijitsiq@@ 273
qqu@@ 273
silattusarvi@@ 273
ugaluat 273
as 272
kkanni@@ 272
qim@@ 272
tigilauq@@ 272
ammangaata 271
iguma@@ 271
ikkaluar@@ 271
inutti@@ 271
kiinaujalirijikkut 271
nunavuumit 271
rnik 271
sananngu@@ 271
simalluni 271
tanna 271
................................................@@ 270
arumaj@@ 270
aujumik 270
iksivauta 270
saij@@ 270
surusi@@ 270
tita@@ 270
11-@@ 269
atausirmik 269
gakku 269
ilinniaqtulirijikkunnut 269
kiggaqtuq@@ 269
naluna@@ 269
nalunaiqtau@@ 269
pilirivving@@ 269
qanuilingan@@ 269
qaujisaqti@@ 269
tavu 269
tsin@@ 269
auniaq@@ 268
kiujunn@@ 268
nunaliujunik 268
ungittuq 268
aippanga 267
apiqqusir@@ 267
arnirij@@ 267
atit 267
gatta 267
laviinnia 267
naam@@ 267
uli 267
uvattinnik 267
alik 266
arnikkut 266
piqasiuti@@ 266
piqata@@ 266
taij@@ 266
unnusakkut 266
-nit 265
aqqu 265
ariaksaq 265
atuqtuks@@ 265
aturn@@ 265
igaj@@ 265
ilagiaq@@ 265
kiujjutiit 265
tugit 265
anganit 264
aulattij@@ 264
imi 264
inuq@@ 264
malluni 264
tinnagu 264
uqalimaarvik 264
akannir@@ 263
atigij@@ 263
kajusin@@ 263
namminiq@@ 263
tukisij@@ 263
uqausitsangit 263
akiliri@@ 262
atsait 262
auluni 262
illi 262
tamannalu 262
utinginnik 262
vik@@ 262
alauqpuq 261
anirij@@ 261
aqpaa 261
imaittu@@ 261
manngi@@ 261
piliriqatig@@ 261
saqqijaaqti@@ 261
tamaat 261
tammaq@@ 261
tuinnaq@@ 261
atuqta@@ 260
aturi@@ 260
maannamut 260
niaq@@ 260
uttauq 260
00 259
apiq@@ 259
iji@@ 259
kiinaujj@@ 259
makima@@ 259
malit@@ 259
natti@@ 259
niriugij@@ 259
nunaliujunut 259
par@@ 259
saqqija@@ 259
simanngittut 259
taujunit 259
aksau@@ 258
augaj@@ 258
sit@@ 258
apiqqutissaq@@ 257
autinik 257
inganit 257
iqqaqtuivi@@ 257
suminga 257
tamann@@ 257
taunasu@@ 257
tinnit 257
uluk 257
uti 257
apiqqutinga 256
apirijumavara 256
imma@@ 256
lauqtut 256
ukiuqtaqtu@@ 256
unnarajar@@ 256
aan@@ 255
arniarmat 255
lusi 255
niuv@@ 255
pijariatu@@ 255
taivit 255
tauqattaq@@ 255
usi 255
assaq@@ 254
attuq@@ 254
giaru@@ 254
imi@@ 254
piliriviujut 254
titiqqakkut 254
titiqqatigut 254
tsa@@ 254
unngimmata 254
12-@@ 253
arsi@@ 253
guti@@ 253
iaqtugut 253
mmaq@@ 253
qangattau@@ 253
qaujisaqtaun@@ 253
silaur@@ 253
taas@@ 253
ttinirmit 253
aliri@@ 252
aujj@@ 252
ijunn@@ 252
ilisaiji@@ 252
inugi@@ 252
iqqu@@ 252
kikku@@ 252
piqujivungaar@@ 252
puraian 252
qik@@ 252
qut 252
quvian@@ 252
ttinn@@ 252
ajju@@ 251
akiliuti@@ 251
gial@@ 251
lirijikkunni 251
nakuqmi 251
pigiaqtittivunga 251
suk@@ 251
ajjigiinngittunik 250
aqtumit 250
pijuma@@ 250
taakkun@@ 250
atuuti@@ 249
iqqaqtu@@ 249
mappig@@ 249
taimai@@ 249
28 248
aliur@@ 248
angaj@@ 248
jaimisi 248
katit@@ 248
nunalimmi@@ 248
suta 248
taugaj@@ 248
tavva 248
titiraqtau@@ 248
.. 247
angilli@@ 247
arma 247
katimaniq 247
nutaamik 247
sani@@ 247
sivuliq@@ 247
ulluunniit 247
arluta 246
imm@@ 246
iniaqta@@ 246
tul@@ 246
asijj@@ 245
ivalli@@ 245
kiinaujaqtaq@@ 245
nangmin@@ 245
pingasut 245
silarju@@ 245
unikkaat 245
uqalimaag@@ 245
apiqsu@@ 244
arumavunga 244
autinut 244
kiinaujaqtaarusi@@ 244
kisi@@ 244
nirij@@ 244
nunalingnut 244
pigiaruti@@ 244
qanui@@ 244
tamakki@@ 244
utita@@ 244
uvang@@ 244
aanniasiuq@@ 243
alirinirmut 243
anngittunga 243
auningit 243
ilugit 243
iqqanaijaqtu@@ 243
jjuti@@ 243
nalunanngittuq 243
qitirmiut 243
saqi@@ 243
sivut 243
tamaksuminga 243
ungalu 243
ajjig@@ 242
ajjigiing@@ 242
akaun@@ 242
akaunngiliurutiq@@ 242
akiliqsuq@@ 242
akittu@@ 242
akkanni@@ 242
angaju@@ 242
ikkann@@ 242
inuk 242
iqqauj@@ 242
jutik@@ 242
nalauttaaqtau@@ 242
pisima@@ 242
qulliq 242
simali@@ 242
sugit 242
aqpit 241
aqsima@@ 241
isumag@@ 241
miu@@ 241
nunang@@ 241
simani@@ 241
ssanik 241
taugiaq@@ 241
tausima@@ 241
24@@ 240
araluar@@ 240
arialik 240
atuinnaq 240
aung@@ 240
ingillu 240
kiut@@ 240
majunga 240
piluaqtumi 240
tapaaqjuk 240
ukainn@@ 240
viup 240
akituj@@ 239
takuksau@@ 239
tigujau@@ 239
arlugu 238
attinn@@ 238
illulirijirjuakkut 238
ppalli@@ 238
qaujisarni@@ 238
tauquj@@ 238
tauqullugit 238
upig@@ 238
................................................................@@ 237
arata@@ 237
ilinn@@ 237
iqattarn@@ 237
iqqanaijaqt@@ 237
nangminiq 237
qallunaatitut 237
aariak 236
arunniiq@@ 236
gavamakkung@@ 236
ija@@ 236
imailing@@ 236
kingullir@@ 236
qaujimal@@ 236
atuinnaq@@ 235
auri@@ 235
galuaqtunga 235
iluun@@ 235
innga 235
jumajara 235
ksat 235
mappigaq 235
piliriangujut 235
simanir@@ 235
ssa@@ 235
um@@ 235
ajauq@@ 234
ar 234
ariaqaratta 234
arumal@@ 234
innait 234
ittinnit 234
piu@@ 234
rmi@@ 234
sivunittinni 234
tauniq@@ 234
tunn@@ 234
tunng@@ 234
-nut 233
ajuni 233
amisuun@@ 233
aqattaqtut 233
aqpavut 233
arial@@ 233
attarmata 233
iqqanaijaaq@@ 233
katimajiujut 233
nuli@@ 233
pularattu@@ 233
qallunaat 233
qiturng@@ 233
simangmat 233
takug@@ 233
uquj@@ 233
anniar@@ 232
gavamakkunni 232
isumaaluutigij@@ 232
simaninga 232
tuju@@ 232
tuksirauti@@ 232
turaag@@ 232
uqausissaq@@ 232
 232
% 231
................................................................................@@ 231
allavvi@@ 231
assi@@ 231
ilinniarn@@ 231
mikiju@@ 231
pillugit 231
qikiqtaalummi 231
rasu@@ 231
ullar@@ 231
06@@ 230
api@@ 230
atiliur@@ 230
gavamakkunginnit 230
ilagijaujut 230
kamagi@@ 230
mar@@ 230
saqqitaujut 230
taralu@@ 230
umal@@ 230
uqarata@@ 230
uva 230
aaq 229
allaijuq 229
ilinniartu@@ 229
qisi@@ 229
qutivut 229
umajara 229
28@@ 228
29 228
appugut 228
asinginn@@ 228
giakkannir@@ 228
haammal@@ 228
ilitar@@ 228
nutaat 228
puk@@ 228
sivunga 228
tauqullugu 228
tauvattut 228
urmi@@ 228
uttigut 228
199@@ 227
ittinnut 227
kti@@ 227
maligaliuqtiuqatikka 227
pijjutiqar@@ 227
puraun 227
qutiq@@ 227
tauniaqtut 227
tittinirmut 227
unnu@@ 227
-ngutillugu 226
2005-@@ 226
alaurama 226
arraagumut 226
atillugit 226
attariaq@@ 226
kannir@@ 226
katimajiralaangukainn@@ 226
maligaliuqtimut 226
piliriangujuq 226
qutigij@@ 226
uluuj@@ 226
apiqqusiit 225
aqatt@@ 225
arlugit 225
aujakkut 225
avu 225
inirmu 225
iqqanaijaqtingit 225
jumal@@ 225
katimaq@@ 225
laurmata 225
nigiani 225
nunavummiunut 225
pi 225
qangata@@ 225
qaujim@@ 225
taulluni 225
tauqattarn@@ 225
ttiav@@ 225
ajunut 224
ilanginnik 224
itinni 224
juk 224
03@@ 223
2001-@@ 223
allu 223
amu@@ 223
aqtauq@@ 223
assait 223
igij@@ 223
innarnut 223
iqqanaijaqtiq@@ 223
makpig@@ 223
maligaliur@@ 223
silata@@ 223
sivuliuqti 223
tamatumani 223
tigil@@ 223
tunirr@@ 223
akik@@ 222
arniaqtuq 222
inulirijikkunnut 222
kattuq 222
katu@@ 222
kivallir@@ 222
siar@@ 222
sugu 222
taikkuninga 222
takun@@ 222
uru@@ 222
27 221
anngilanga 221
aqqut 221
limaaq 221
nunavumi@@ 221
pijitsi@@ 221
pit 221
pularaqtu@@ 221
qassi@@ 221
qitirmiuni 221
quviagij@@ 221
rju@@ 221
sukkuaq@@ 221
utimik 221
aaqqiksu@@ 220
aimmat 220
akilir@@ 220
aniittut 220
anngin@@ 220
illunga 220
mullu 220
pilimma@@ 220
qaujimanng@@ 220
sap@@ 220
unngu@@ 220
unniit 220
uqalauq@@ 220
ikajuutiq@@ 219
iqqaqtuiv@@ 219
katimavi@@ 219
maligaliurvinga 219
mmu 219
nutaang@@ 219
qu 219
tamatum@@ 219
uniaqtuq 219
23@@ 218
24 218
aju 218
anngilat 218
aqtumi 218
arra@@ 218
arvaaluk 218
iqqauma@@ 218
maligarnik 218
nirmik 218
nunatsiarmi 218
sanaju@@ 218
saqqit@@ 218
tunngavikkut 218
uqp@@ 218
27@@ 217
ajuq 217
angannik 217
angirutau@@ 217
aqs@@ 217
aqtu 217
arniaqtugut 217
arningani 217
aulir@@ 217
auvalli@@ 217
kajusiti@@ 217
pingasunik 217
qiti@@ 217
ttinirmik 217
akit@@ 216
angilligiaq@@ 216
aqtun@@ 216
autingit 216
igut 216
ilisaijiit 216
ilitaq@@ 216
jumajunga 216
makkut@@ 216
qattiinn@@ 216
uqaujji@@ 216
uvat 216
aaqqis@@ 215
akkunnit 215
alakk@@ 215
ikajuqtuq@@ 215
ingaar@@ 215
iqsu@@ 215
kajusitti@@ 215
ksanik 215
maki@@ 215
ming@@ 215
mis@@ 215
sinn@@ 215
ullumiujuq 215
umi 215
uqaqatig@@ 215
utigut 215
05@@ 214
aanniaqtulirijikkunnut 214
aqqat 214
aturiaq@@ 214
pilu@@ 214
sanikilu@@ 214
uattiaru@@ 214
uniaqtunik 214
uvannik 214
angijuqq@@ 213
anniaq@@ 213
arniqsau@@ 213
atar@@ 213
ittur@@ 213
jumallunga 213
kinatuinnaq 213
kinng@@ 213
lirijinut 213
piggan@@ 213
tavvanngat 213
unginnut 213
vigij@@ 213
-ngu@@ 212
04@@ 212
1.@@ 212
allari@@ 212
kisutuinn@@ 212
mmiut 212
piqujaksaq 212
unnuk 212
utivut 212
aja@@ 211
akann@@ 211
attuiniq@@ 211
attuni 211
inuusu@@ 211
ituinn@@ 211
kiinaujani 211
lirinirmu 211
llutik 211
nutaanik 211
qimirrujiit 211
tukisitti@@ 211
uniuk 211
2002-@@ 210
aka@@ 210
alauratta 210
asingillu 210
atuliqti@@ 210
augalu@@ 210
autillugu 210
auvut 210
isumagijau@@ 210
jutinut 210
katimma@@ 210
marr@@ 210
tanginnut 210
annu@@ 209
atausirmut 209
aullaqti@@ 209
ijjuti@@ 209
nalautta@@ 209
niar@@ 209
tamassuminga 209
ulaurmat 209
utinga 209
asuarnirmut 208
aulaninginnut 208
gavamakkunginnut 208
ilanginni 208
ilitari@@ 208
niruaqti@@ 208
pilirianik 208
pilirijju@@ 208
sama@@ 208
taalait 208
tamaksumunga 208
ttuq 208
ujaranniar@@ 208
ulutik 208
unnarmata 208
aalu@@ 207
ajjiginng@@ 207
avvi@@ 207
iksiv@@ 207
ilisarij@@ 207
irniar@@ 207
kig@@ 207
kingun@@ 207
makkuk@@ 207
minut 207
pisi@@ 207
saal@@ 207
saqqiqti@@ 207
simaninginnut 207
tusaajitiguuqtuq 207
uqautig@@ 207
aksururn@@ 206
atuqp@@ 206
kinauj@@ 206
mig@@ 206
naasautilik 206
nunattinni 206
piuju@@ 206
puig@@ 206
qaujigiaq@@ 206
qaujimajuinn@@ 206
tukiq@@ 206
ulauqtumi 206
umiarju@@ 206
agguq@@ 205
aluunniit 205
apiqsurn@@ 205
inngaaq@@ 205
majut 205
mali 205
niruaq@@ 205
qaujimanngittunga 205
qujali@@ 205
qujannamiiq@@ 205
ulla@@ 205
uqausirirata@@ 205
aani 204
akkuv@@ 204
anirn@@ 204
apiqqutigi@@ 204
irnik 204
maligaliuqtiuqati@@ 204
mikilli@@ 204
piliriviujuq 204
pisimaj@@ 204
pulaariaq@@ 204
qanigij@@ 204
qurluqtu@@ 204
uqausiqaqq@@ 204
................................................................................................................................@@ 203
angajuqqaaq@@ 203
gavamatuqakkunnit 203
illuta@@ 203
ilugu 203
miunut 203
nan@@ 203
piviksaq@@ 203
qamanittu@@ 203
qikiqta@@ 203
sivi@@ 203
ajunit 202
aksuru@@ 202
aqju@@ 202
arniaratta 202
asianut 202
asiv@@ 202
atuqtuk@@ 202
ikummaqquti@@ 202
inuuj@@ 202
katimaqatiq@@ 202
maligaks@@ 202
malillugu 202
maq@@ 202
matuiqtauninga 202
minnik 202
pusan@@ 202
sar@@ 202
tsij@@ 202
ukununga 202
07@@ 201
asing@@ 201
illuli@@ 201
iqatig@@ 201
mmijuq 201
palu@@ 201
qanuqtuur@@ 201
ssait 201
taaksiij@@ 201
taikkun@@ 201
taulu@@ 201
uqaqq@@ 201
uqarasu@@ 201
uqaru@@ 201
utillugit 201
giali@@ 200
igit 200
ingirraj@@ 200
kikkutuinnait 200
naammak@@ 200
qattirij@@ 200
silattusarv@@ 200
sulijuq 200
tillunga 200
tinga 200
ulauqput 200
uqausiss@@ 200
aanniavi@@ 199
kuak 199
l 199
qaritauj@@ 199
qutti@@ 199
siuq@@ 199
sung@@ 199
takuju@@ 199
tsait 199
uvunga 199
appat 198
aqqaa 198
arrag@@ 198
aulatsi@@ 198
ilitarijau@@ 198
mmarialu@@ 198
qanuinn@@ 198
qimir@@ 198
qugut 198
sivulliqpaamit 198
tuav@@ 198
ujaranni@@ 198
2-1 197
aniguq@@ 197
anngil@@ 197
atuli@@ 197
iniaqtara 197
kall@@ 197
namminiqaq@@ 197
pigij@@ 197
talurju@@ 197
tauvak@@ 197
uqausirng@@ 197
uuttu@@ 197
7-1 196
a. 196
atuqtus@@ 196
ijut 196
ikkunnit 196
mijugut 196
nunaliujunit 196
paulusi 196
pingajuannik 196
qujannamiiruma@@ 196
tait 196
taujunnaq@@ 196
tauninganut 196
ulauqtu@@ 196
uqai 196
09@@ 195
asianik 195
iqsuq@@ 195
katutjiqatigi@@ 195
qujann@@ 195
turaangajut 195
ulugu 195
uuktu@@ 195
-ngujut 194
aq. 194
atsau@@ 194
atuqtauju@@ 194
igasu@@ 194
ilaq 194
irmik 194
isumaksaqsiur@@ 194
llu@@ 194
llugu 194
sivuliuqtii 194
unnaqtunga 194
vingmi 194
aqsimajut 193
arajar@@ 193
ga 193
iqqanaijaar@@ 193
kkunnut 193
piikuu 193
simangmata 193
tautu@@ 193
2002@@ 192
anaan@@ 192
haaml@@ 192
katimajjutis@@ 192
lirijiku 192
naal@@ 192
pali@@ 192
sanajulirijikkunnut 192
tusaaji 192
anguju@@ 191
arragu@@ 191
auninga 191
iniqs@@ 191
kaalvin 191
katimajinut 191
qurluq@@ 191
rnit 191
saqqir@@ 191
saqqititti@@ 191
sitammiq 191
tautti@@ 191
uatti@@ 191
uniaqtut 191
uvvalu@@ 191
aippaanik 190
inna@@ 190
katimajiralaanguinnaqtut 190
katimatuinn@@ 190
kkanniq 190
ksait 190
kut 190
taakkunanngat 190
titiraqtii 190
ujunn@@ 190
umut 190
upirnga@@ 190
armiut 189
iku 189
ilitarijuma@@ 189
ilutik 189
inulirijikk@@ 189
junnaq@@ 189
katimavimmi 189
ll@@ 189
malillugit 189
mamis@@ 189
nunavuup 189
pilirivik 189
pingatsiq 189
sapujj@@ 189
sumunga 189
tarvi@@ 189
tingit 189
utimut 189
................................................................................................@@ 188
akittur@@ 188
arniarnir@@ 188
arunniir@@ 188
ilanginnut 188
ilauqata@@ 188
man 188
taakk@@ 188
tamatuminnga 188
viuk 188
2000-@@ 187
6-1 187
aanngi@@ 187
akauna@@ 187
anginiq@@ 187
katimajjutiksanut 187
kiv@@ 187
lugillu 187
naasautik 187
nunalilima@@ 187
pituq@@ 187
simajara 187
tsaq@@ 187
uju 187
uku@@ 187
utaujunik 187
uumaj@@ 187
angirutiq@@ 186
apirijumajunga 186
arali 186
ilij@@ 186
is 186
isumaalug@@ 186
isuung@@ 186
katimajiralaanguinn@@ 186
nakuqmii 186
naliqqangit 186
qamutauj@@ 186
qauppat 186
tutit 186
upag@@ 186
uppirusu@@ 186
uqqa@@ 186
2001-2002 185
angit@@ 185
aruma 185
attugut 185
gijavut 185
ilitarijauningit 185
kiinaujaqtu@@ 185
nuk@@ 185
paliisikkut 185
pil@@ 185
sik@@ 185
suusan 185
taikua 185
turaangajuq 185
ungmat 185
util@@ 185
................................................................................................................................................................@@ 184
apiqqut@@ 184
arijaujut 184
isumajunga 184
naansi 184
qaujimaju@@ 184
qusi@@ 184
simajunga 184
siti@@ 184
taikani@@ 184
vak@@ 184
................................................................................................................................................@@ 183
alirmat 183
angajuqq@@ 183
angitigut 183
anik@@ 183
arng@@ 183
ilauqtut 183
llunga 183
milianik 183
nunarju@@ 183
pau@@ 183
sanikiluaq 183
simajangit 183
tausimaju@@ 183
tukisiuma@@ 183
ujjau@@ 183
ulaurmata 183
unnaqtavut 183
utirvi@@ 183
... 182
1999-@@ 182
aari@@ 182
auniq@@ 182
aviktuq@@ 182
giaq 182
igluli@@ 182
ijariaq@@ 182
mijunga 182
nunatti@@ 182
nunav@@ 182
nunavu 182
nuqqaqpuq 182
pijunnar@@ 182
qattaq@@ 182
quvias@@ 182
sanngi@@ 182
sulikkanniq 182
taimaittunik 182
taula@@ 182
tunngasutti@@ 182
unngilaq 182
uqtaq@@ 182
utj@@ 182
11@@ 181
2003 181
aksanik 181
ariaqaraj@@ 181
auqattar@@ 181
giarunn@@ 181
illugit 181
iqqanaijaqtiujut 181
maligaliurviup 181
nunavung@@ 181
piliriji@@ 181
qanuilingalir@@ 181
sanajulirijikkut 181
taujunnar@@ 181
tuavirnaqtu@@ 181
ulluq 181
uqati@@ 181
alirn@@ 180
allutik 180
annga 180
anngilu@@ 180
ikajurn@@ 180
ilanginnit 180
ingirraqattaqtu@@ 180
ivv@@ 180
kamisan@@ 180
kuapurais@@ 180
nikuvippunga 180
nunatsiap 180
saniraj@@ 180
simavat 180
isa@@ 179
katimajiralaang@@ 179
malittugit 179
nuqqar@@ 179
rnut 179
sauvuq 179
tukisiumaj@@ 179
uqausitsaq@@ 179
akinginnut 178
atuqtuksait 178
ausu@@ 178
illunut 178
iluta 178
inikkut 178
iqaluttuuttiaq 178
isulivv@@ 178
simaju 178
tarn@@ 178
tini@@ 178
ujuq@@ 178
uqsi@@ 178
08@@ 177
aarju@@ 177
akkaniq@@ 177
arning@@ 177
arumajunga 177
asinn@@ 177
assanik 177
ilinniarnirmut 177
inungit 177
ittarnis@@ 177
paktaqtuqtut 177
simava 177
sunakkuta@@ 177
tauti@@ 177
tisam@@ 177
atangiq@@ 176
ilirinirmut 176
kajusigi@@ 176
kuap@@ 176
lirinirmit 176
ministanga 176
nunalingn@@ 176
parnatau@@ 176
qaujimav@@ 176
ssaq@@ 176
tauqatta@@ 176
ukkannir@@ 176
unnarmangaatta 176
vis@@ 176
40 175
air@@ 175
angajut 175
arnit@@ 175
gialiit 175
illaqtut 175
kap@@ 175
katujjiqatigiit 175
kuupa 175
pigu@@ 175
ppunga 175
tamarmik 175
ugatta 175
ullaakkut 175
unirmik 175
aaqqiktau@@ 174
ajjigiinngittu@@ 174
akkanniruma@@ 174
aksait 174
ikajuqtauj@@ 174
iksaq@@ 174
iluunniit 174
ingni 174
maligaliurvingmi 174
pijunnaq@@ 174
qaujimallar@@ 174
sim@@ 174
tim@@ 174
tisama@@ 174
ungittu@@ 174
uqausiksa@@ 174
uqpalli@@ 174
uqsualummut 174
utij@@ 174
utinu 174
aaji@@ 173
aqtanga 173
aqtig@@ 173
atjigi@@ 173
ilagiaru@@ 173
iliqqu@@ 173
inngaar@@ 173
iqqanaijar@@ 173
jj@@ 173
mini 173
naammagij@@ 173
nakurmi@@ 173
nunalinnik 173
pukkirnaq 173
siqu@@ 173
ullutit 173
uqsuqtu@@ 173
utiujut 173
akkanirn@@ 172
apiqutitsait 172
aqpakka 172
aqtangit 172
arraaguit 172
assaq 172
atinnut 172
aulauqtuq 172
ilauqtang@@ 172
iqaluktuutti@@ 172
katimatuinnaqtillugit 172
pimmarialu@@ 172
qaujin@@ 172
takugi@@ 172
taulauqtut 172
titiqqak 172
2003-@@ 171
45@@ 171
ajunn@@ 171
alak@@ 171
alaunnginn@@ 171
allir@@ 171
atir@@ 171
attinnit 171
juit 171
qaujimagama 171
saqqitaujuq 171
ugit 171
uppir@@ 171
................................................................................................................@@ 170
amisur@@ 170
anilu 170
ava@@ 170
ikajuqtiit 170
iluani@@ 170
nauj@@ 170
niruaqtulirinirmut 170
pigiaqtitait 170
pijau@@ 170
tait@@ 170
tusaaji@@ 170
ulaar@@ 170
unullu 170
uqaqsimammat 170
ajumik 169
alungmi 169
apiqqutissait 169
aulauqtut 169
iqaluttuutti@@ 169
magu 169
mami@@ 169
naasa@@ 169
taakkunani 169
tsig@@ 169
tuinna@@ 169
uqaqti. 169
alirmata 168
aluit 168
angajuqqaamut 168
aqtumini@@ 168
arniqpat 168
arraagu 168
asug@@ 168
ikkaj@@ 168
ilauqta@@ 168
iqqan@@ 168
kamagijau@@ 168
maannama@@ 168
miuta@@ 168
pigiaqtita@@ 168
pijjutigil@@ 168
pijunnarniq@@ 168
simaliqtut 168
taqqakkununga 168
tinniaq@@ 168
uqausiqtigut 168
uqtuq 168
uumajurniaq@@ 168
aalliq@@ 167
angumma@@ 167
aulajjutinut 167
aviktur@@ 167
ilinniariaq@@ 167
inuliriji@@ 167
kangiqtugaapi@@ 167
kat@@ 167
mista. 167
pingajuanni 167
piri 167
qimirruni@@ 167
siggali@@ 167
taujuq@@ 167
unikkaar@@ 167
unur@@ 167
uvak@@ 167
uvattut 167
agg@@ 166
akinga 166
e@@ 166
irniaq@@ 166
lais@@ 166
pattatuq@@ 166
qam@@ 166
qanuinni@@ 166
qujannamiirumajara 166
sivulliqpaaq 166
allag@@ 165
aqtigut 165
atsaq@@ 165
attunga 165
ikupivvilirijikkunnut 165
iqsukti 165
isumassaqsiur@@ 165
ivunga 165
kamagijalik 165
llugit 165
piqatau@@ 165
qanutuinnaq 165
qaujiti@@ 165
sivuliuqti@@ 165
titiraqsimaningit 165
ungmata 165
vu@@ 165
.... 164
aliratta 164
aluaqtunga 164
apiqqutigijara 164
arusi@@ 164
aulla@@ 164
gavama 164
ingnut 164
kata@@ 164
maligaliuqtii 164
mitsaanut 164
naalauti@@ 164
qa 164
qitingani 164
quli@@ 164
quviag@@ 164
sivuliqtiup 164
tamat@@ 164
tunngasukti@@ 164
ujunu 164
uqausituinn@@ 164
attiar@@ 163
autaa 163
ilul@@ 163
ingujut 163
isumaqsaq@@ 163
jaluna@@ 163
makkuktu@@ 163
maligaliuqtinik 163
mata@@ 163
pingas@@ 163
qanurli 163
sini@@ 163
taqarmat 163
ugaal@@ 163
umajakka 163
upigi@@ 163
uqausits@@ 163
1,@@ 162
agaq@@ 162
aliqtut 162
angajuqqaanga 162
apalli@@ 162
aqpammata 162
aruri@@ 162
attarniar@@ 162
ilinniaqtiujut 162
kikkutuinn@@ 162
nangiqsivunga 162
qaa 162
qamaniqtuaq 162
qaujikkainiq 162
rniaq@@ 162
simavunga 162
sita@@ 162
sivullir@@ 162
ungata@@ 162
uninganik 162
uqausiit 162
ammangaaq 161
apiriniaq@@ 161
aqraagu@@ 161
aulani@@ 161
ingirrajulirijikkut 161
inutu@@ 161
ippassaq 161
isumalug@@ 161
katimavimmut 161
lig@@ 161
siniar@@ 161
tauniaqtunik 161
turi@@ 161
uman@@ 161
uvattinn@@ 161
alaurn@@ 160
am 160
apiqqutigali 160
arraagung@@ 160
avuq 160
imminik 160
inunni 160
nunnguani 160
pigiaru@@ 160
piliritti@@ 160
qikiqtaaluup 160
sanu 160
saqqijaaqtitti@@ 160
ttau@@ 160
tusaajititigu 160
unillu 160
unnarniar@@ 160
utaujuq 160
29@@ 159
33@@ 159
5-1 159
aang@@ 159
ajarmangaaq 159
aluarmata 159
gavamaulluta 159
ianga 159
ikupivvilirijikkut 159
ilagiaruti 159
ilinniarving@@ 159
inirs@@ 159
iqqanaijaat 159
iqqanaijaqtulirijikkut 159
kinatuinn@@ 159
naasauti@@ 159
pinasuaru@@ 159
qikiqtaalu@@ 159
sivullirmi 159
takujuma@@ 159
tiujut 159
tukisigiarutiks@@ 159
ulauqpuq 159
unik@@ 159
35@@ 158
877 158
akkulli 158
akkuvi@@ 158
arniaqpugut 158
attiaq 158
aulattiji@@ 158
ilitarsi@@ 158
ktunga 158
m 158
pin@@ 158
piqqusituq@@ 158
pput 158
pu 158
qaujijuma@@ 158
qaujimajatuqanginnik 158
tata@@ 158
tupiq 158
tussi@@ 158
vvi@@ 158
1200 157
alluni 157
angilligi@@ 157
apiqsur@@ 157
aqattarmata 157
aqtuinn@@ 157
aujjuti@@ 157
g 157
hanta 157
iqittuq 157
iqqanaijarvi@@ 157
itsivauta@@ 157
juupi 157
kann@@ 157
kiinaujatsama@@ 157
ksanit 157
maannali 157
nammini@@ 157
nunatsi@@ 157
pallian@@ 157
piqujaksait 157
qaujisaqta@@ 157
qaujut 157
tikkut 157
uma 157
uqsualuk 157
uvann@@ 157
2001@@ 156
aga@@ 156
amu 156
arniaqpunga 156
assau@@ 156
atigu 156
atuagait 156
atuagaq@@ 156
ikajuqsur@@ 156
illuliur@@ 156
kamp@@ 156
katimajingita 156
katimann@@ 156
llar@@ 156
maligaliriji 156
pinnguarvi@@ 156
qatta@@ 156
silataani 156
tauniaqtu@@ 156
ukuninga 156
uqaqqau@@ 156
uqatigi@@ 156
aqtitsi@@ 155
arm@@ 155
iglu 155
ii@@ 155
imik 155
katimautitsa 155
malauq@@ 155
maligaliuqvimmut 155
mmijunga 155
nanuit 155
nuuvi@@ 155
qaujunga 155
qujannami 155
quki@@ 155
rniq 155
sanannguag@@ 155
sanng@@ 155
taat@@ 155
ulluti 155
unnaqqa 155
uqsualuit 155
334-7266 154
4-1 154
975-5190 154
anginnama 154
ilaaqai 154
katimajiralaanit 154
mittimatali@@ 154
nang@@ 154
nunalirala@@ 154
nuttiq@@ 154
pijunnarn@@ 154
qi@@ 154
takut@@ 154
tinnagit 154
unnala@@ 154
uting@@ 154
0h0 153
8-1 153
975-5000 153
aaqqiuma@@ 153
akiqangittuq 153
artuq 153
ataujuq 153
atausir@@ 153
aulatsij@@ 153
iksa@@ 153
itsu@@ 153
lluni 153
mimmat 153
pian@@ 153
piqasiujj@@ 153
qarasauj@@ 153
sivulliqp@@ 153
surusiit 153
taanut 153
taimaittumik 153
tallima@@ 153
tatatiri@@ 153
titiqqakkuvik 153
tuinnaung@@ 153
ungasi@@ 153
unikkaaq 153
uri 153
x0a 153
akkatta 152
aksanit 152
aliqq@@ 152
attauti@@ 152
aulu@@ 152
inunnit 152
iqqanaijaqtinik 152
jutinik 152
kajusititti@@ 152
katimautinik 152
lirijikkunnik 152
mijavut 152
millu 152
minirnik 152
namminirij@@ 152
nau@@ 152
nuqqang@@ 152
pigiaqtitaksanit 152
pijunnauti@@ 152
qaujisar@@ 152
qautamaamut 152
titiraqsimajunik 152
ujaar@@ 152
unngilat 152
upirn@@ 152
vit 152
allav@@ 151
ana 151
anginngittuq@@ 151
apirig@@ 151
aqtug@@ 151
atuar@@ 151
aturunn@@ 151
gaasalii 151
imaili@@ 151
iqanaijaqti@@ 151
juti 151
kikkut 151
kil@@ 151
maligaliurtiit 151
miq@@ 151
mmaqsa@@ 151
nunavuumut 151
pilirivigij@@ 151
pingu@@ 151
qimirrujau@@ 151
rama 151
sanir@@ 151
simaniq@@ 151
suungummata 151
tsau@@ 151
tuksiarniq 151
tunngasu@@ 151
ujaq 151
3-1 150
aik@@ 150
arniujuq 150
atj@@ 150
aturniar@@ 150
auk@@ 150
avik@@ 150
ilagijauq@@ 150
ilinganiq@@ 150
ilinniarniq 150
iquj@@ 150
jumi 150
kamaji@@ 150
kanannangani 150
lugulu 150
ministang@@ 150
nungu@@ 150
pivalliatittinirmut 150
qilavva 150
qin@@ 150
qunga 150
suppunga 150
taim@@ 150
tii 150
tungili@@ 150
ugunn@@ 150
ukkut 150
uqtuq@@ 150
viujut 150
100 149
aanniarvili@@ 149
aaqqii@@ 149
akailliur@@ 149
alimaaq 149
alimaat 149
ammattauq 149
angajuq@@ 149
aqta 149
ava 149
ikut 149
ilaurmata 149
illatta@@ 149
ittun@@ 149
kingulliqpaamik 149
llari@@ 149
paanapaasi 149
pitti@@ 149
takk@@ 149
tauvuq 149
unnaqpaa 149
uqauj@@ 149
urasu@@ 149
500@@ 148
gig@@ 148
gisimaj@@ 148
ikkarrialu@@ 148
iliit 148
immin@@ 148
innu 148
isumagijaq@@ 148
katujjiqatigiingit 148
kisimi 148
niq 148
nuqqakainn@@ 148
pijats@@ 148
qitirmi@@ 148
quppirniliit 148
t. 148
tiginiaq@@ 148
tiglu 148
tsuni 148
uuma@@ 148
vat 148
vungali 148
00-@@ 147
allatta@@ 147
arniaqtavut 147
c@@ 147
iglulirijirju@@ 147
ingannut 147
iqqanaijaanik 147
iqqanaijarv@@ 147
lutillu 147
nammak@@ 147
pinnguaqtu@@ 147
ppir@@ 147
qaujikkaij@@ 147
qaujimallunga 147
sanirvai@@ 147
saqqij@@ 147
simanngi@@ 147
siva@@ 147
sivulir@@ 147
sivulliujjau@@ 147
taili@@ 147
tauniku@@ 147
tunis@@ 147
uqariaq@@ 147
uqaujjau@@ 147
utaujunut 147
uut@@ 147
9-1 146
aqqunga 146
atuagaq 146
aujumut 146
innirij@@ 146
katimavvi@@ 146
kiujuma@@ 146
pijar@@ 146
pilirivinga 146
pula@@ 146
takkua 146
ungattauq 146
unnarlutik 146
urij@@ 146
utiksanik 146
vu 146
2002-2003 145
angij@@ 145
angmata 145
gg@@ 145
ilaliuti@@ 145
illumik 145
inuk@@ 145
kingullirmi 145
o@@ 145
paalu@@ 145
pigiaqtitaujuq 145
pinasuarusiup 145
taassumunga 145
tamannali 145
tari@@ 145
titiqqanit 145
tungilira 145
tusaumaq@@ 145
tussirauti@@ 145
ujuup 145
uqakainn@@ 145
uqausirilauq@@ 145
uqtau@@ 145
akau@@ 144
aminnik 144
angunasukti@@ 144
arviat 144
atsualuk 144
attangit 144
avittuqsimajut 144
gavamakkungita 144
ilaliujj@@ 144
ilat 144
katimajiuq@@ 144
maligaliuqtiuqatiga 144
maligiaq@@ 144
namunng@@ 144
paang@@ 144
pini@@ 144
pitju@@ 144
sana@@ 144
saqqitau@@ 144
sinik 144
taaksumunga 144
taujumut 144
tusaruma@@ 144
unngil@@ 144
....... 143
aajiir@@ 143
aaqqiksuijiit 143
aulanirmut 143
igama 143
iluliq@@ 143
irniq 143
kinguniagut 143
nutara@@ 143
piquti@@ 143
qattinik 143
qujan@@ 143
qula@@ 143
quviappunga 143
taqqakk@@ 143
tungi@@ 143
uqalimaaqtauninga 143
visi@@ 143
vivvuari 143
aili@@ 142
angiqput 142
appuq 142
atingit 142
attiaq@@ 142
katillugit 142
kinguvv@@ 142
mallutik 142
maniq@@ 142
mimmata 142
piluaqtumit 142
qanuinng@@ 142
qautamaat 142
sali@@ 142
simalauq@@ 142
tuinnaqtara 142
uaj@@ 142
ujuit 142
ullung@@ 142
aliuq@@ 141
angiqatigiigu@@ 141
auk 141
aullar@@ 141
illulirijikkut 141
innatuqarnut 141
kajusigit 141
katimag@@ 141
kiinaujalirijikkunnut 141
matik 141
naittu@@ 141
nunalinnu@@ 141
nunavuumik 141
pitaqar@@ 141
piujummari@@ 141
qaujimag@@ 141
taulauqtuq 141
ukiaksa@@ 141
uqaujjigi@@ 141
ariangit 140
arijau@@ 140
assanut 140
atulu@@ 140
gavamatuqakkunnut 140
guri@@ 140
iqqat 140
irnit 140
maani 140
makkuttu@@ 140
mani 140
maniar@@ 140
mannir@@ 140
mmarik 140
nuqqangaalauk@@ 140
piqu@@ 140
pirju@@ 140
sauniar@@ 140
simammangaata 140
tan@@ 140
tusaumaj@@ 140
uling@@ 140
uqsuq@@ 140
utinginni 140
uummaqqutilirijikkut 140
ainnar@@ 139
alunnik 139
angini 139
angiqtaujuma@@ 139
apiqqutiks@@ 139
apiqsuqtau@@ 139
arviani 139
asuungummata 139
givakka 139
ilau@@ 139
iqalunnut 139
iqqanaijaaks@@ 139
maligassait 139
matuiqsinirmut 139
nung@@ 139
piliriviup 139
piuk 139
qaiquj@@ 139
sinirmut 139
tanginni 139
tauvaktut 139
tutsi@@ 139
uqausirijuma@@ 139
utiqti@@ 139
aliqtuq 138
aqtualu@@ 138
atautti@@ 138
ilaakku@@ 138
ilagijaujuq 138
imaak 138
innatu@@ 138
kaattula@@ 138
katutj@@ 138
mili 138
nalunaikku@@ 138
nuktiq@@ 138
piliriqatiqar@@ 138
pivissaq@@ 138
qatsiun@@ 138
qutingit 138
quv@@ 138
surusirnut 138
taqqa@@ 138
ullatta@@ 138
urmi 138
uuttuu@@ 138
uvat@@ 138
aksurur@@ 137
angun@@ 137
aqqugut 137
aunir@@ 137
auqatta@@ 137
giariaq@@ 137
illari@@ 137
inulirij@@ 137
kisianittauq 137
kkanniq@@ 137
lirijiq@@ 137
lirinirmi 137
luk@@ 137
niruarn@@ 137
pinir@@ 137
qurluqtur@@ 137
rli 137
silattursaq@@ 137
simalirmata 137
tuksirau@@ 137
tununiq 137
uannangani 137
uqausiksait 137
.......... 136
06 136
aangaj@@ 136
appa 136
aqpalla@@ 136
aqtil@@ 136
ariar@@ 136
augatta 136
ilinniari@@ 136
iqalungni 136
iqqanaijarti@@ 136
irala@@ 136
kajusiniaq@@ 136
limaanik 136
maligaliurvimmit 136
mallar@@ 136
minga 136
mmatik 136
naju@@ 136
nutti@@ 136
paippa@@ 136
pijauj@@ 136
piliriariv@@ 136
simajutigut 136
taimaig@@ 136
takus@@ 136
tsinirmut 136
ttini@@ 136
tuniuqq@@ 136
uniaqtumi 136
ununga 136
unuqsi@@ 136
uqsualuup 136
2.@@ 135
aggiq@@ 135
aksu@@ 135
amisummari@@ 135
ammalu@@ 135
apiqqutitsaq@@ 135
aqtakka 135
ariiq@@ 135
atillugu 135
atuaq 135
atuinnariaq@@ 135
igluq@@ 135
illuligaarju@@ 135
ippat 135
kaantur@@ 135
nangir@@ 135
ngat 135
piliriamut 135
qanuqtu@@ 135
qaujikkaijjutit 135
qaujimagatta 135
qilavv@@ 135
tiguj@@ 135
unnaqta@@ 135
upigij@@ 135
– 135
aling@@ 134
arniaqpara 134
asuk@@ 134
gavamatuqakk@@ 134
ikajurunn@@ 134
ikpaksaq 134
ilaj@@ 134
inginnullu 134
inuinn@@ 134
iqaqtut 134
irr@@ 134
simajumi 134
taar@@ 134
tamatu@@ 134
titirauj@@ 134
aanniarn@@ 133
ajaqtut 133
aksanut 133
alianaigusu@@ 133
angagut 133
aravit 133
atili@@ 133
attavut 133
aurmata 133
gajar@@ 133
imu 133
inirij@@ 133
kkanniriaq@@ 133
luutta@@ 133
ministau 133
nalliukkumaaq@@ 133
pisimatti@@ 133
pulaaqtinit 133
qur@@ 133
samik 133
sivunir@@ 133
takujagaq@@ 133
taugunn@@ 133
titiqtug@@ 133
titut 133
tunijauv@@ 133
unnga 133
uqalimaaq@@ 133
uqalimaaqtau@@ 133
utu@@ 133
20-@@ 132
aaqqiksi@@ 132
aaqqittau@@ 132
akiraqtuq@@ 132
aqtaili@@ 132
attarniaq@@ 132
auqattaq@@ 132
giaqaratta 132
iniujuq 132
iqqanaijaliq@@ 132
irnut 132
jutigij@@ 132
kamagijauj@@ 132
katimajjutiks@@ 132
katimatuinnatillugit 132
kkama 132
laurmat 132
maannaujukkut 132
niriuppunga 132
nunagij@@ 132
parnautiit 132
piij@@ 132
qaujisarnirmut 132
qikiqtarju@@ 132
sa 132
tamak@@ 132
tittij@@ 132
ullur@@ 132
unnaqtara 132
uqausiu@@ 132
2001-mi 131
aniq 131
aqtinut 131
aqtittinirmut 131
aqtuit 131
aulatt@@ 131
iliqqusilirijikkunnut 131
illutit 131
ingirrajulirinirmut 131
ititut 131
ivva 131
kp@@ 131
mallungalu 131
ministamik 131
mmijara 131
ngata 131
siammaq@@ 131
sivurngagut 131
tukisiv@@ 131
upigusu@@ 131
uqalaur@@ 131
uqausiq 131
ursu@@ 131
vili@@ 131
# 130
..... 130
akikilli@@ 130
apirikkannir@@ 130
aqti 130
arniaqtunga 130
atuliqujau@@ 130
iipurul 130
ikajurasu@@ 130
ippugut 130
iqaluttuutsi@@ 130
isauj@@ 130
jula@@ 130
lutalu 130
nalunaiqsivi@@ 130
pilai 130
pingasunut 130
quan@@ 130
siniq@@ 130
tuinnarata@@ 130
umavara 130
utits@@ 130
utta@@ 130
2004-@@ 129
ajaqtuq 129
annginnama 129
apiqqutigiqqauj@@ 129
aqputit 129
gavamanga 129
iglulirijiqju@@ 129
illulirijirjuak@@ 129
ittigut 129
kajusiinn@@ 129
kisian@@ 129
makkuttunut 129
palla@@ 129
pinnguavijju@@ 129
pivalliatitti@@ 129
tuksiarnirmut 129
turaangajunik 129
tusaajitiguurunniiqtuq 129
unnginnama 129
uqalaurmat 129
............... 128
apiqqutinganut 128
aqatigi@@ 128
arraagunik 128
aungi@@ 128
i. 128
ingagut 128
inuus@@ 128
iqa@@ 128
iqqanaijaqatigi@@ 128
irng@@ 128
ivvit 128
kangir 128
katimajiuqati@@ 128
mmijut 128
pivalliajulirinirmut 128
qaujijumatuinnaqpunga 128
qaujijumatuinnaqtunga 128
salli@@ 128
sijunn@@ 128
simaniar@@ 128
simanngittuq 128
sukkarutaa 128
taliq@@ 128
talliman@@ 128
taq 128
taujuni 128
uninginnut 128
uqaqtii. 128
urng@@ 128
amin@@ 127
amisunut 127
ammatauq 127
asuq@@ 127
gilin 127
iipuru 127
ilin@@ 127
ilinniaqtinik 127
illumut 127
iniaqtang@@ 127
inukti@@ 127
isumavunga 127
jugu 127
kaan@@ 127
kikkulimaanut 127
kiul@@ 127
limaanit 127
maanitu@@ 127
nalliuniq@@ 127
niurrutiq@@ 127
panniqtuuq 127
pijjutig@@ 127
piqqusi@@ 127
sing@@ 127
sulikkanniiq 127
sura@@ 127
tanginnit 127
tunngaviq@@ 127
unginnik 127
uqattaqtut 127
urmat 127
uvalli@@ 127
aani@@ 126
amiakk@@ 126
aniqsau@@ 126
aqpattut 126
arraagutamaaqsi@@ 126
asiagut 126
ataani@@ 126
gavamatuq@@ 126
gusi@@ 126
ikupigvi@@ 126
innaq@@ 126
jusi@@ 126
katimautiminingit 126
kiujjut@@ 126
milian@@ 126
pisimanng@@ 126
pita 126
qimirrunak@@ 126
saqtut 126
simajuit 126
simajumut 126
tillugi 126
upak@@ 126
akitujutinut 125
akkanniriaq@@ 125
anull@@ 125
aqtittij@@ 125
aqtumi@@ 125
atsanik 125
atuinnaqtaq@@ 125
gianng@@ 125
inngin@@ 125
innirmut 125
katimanir@@ 125
kiinaujaliurasu@@ 125
lira@@ 125
makkuttuit 125
mangata 125
nainaaq@@ 125
nirmit 125
panniq@@ 125
parnautinik 125
pijariiqtau@@ 125
pilimmaks@@ 125
pita@@ 125
qaij@@ 125
rinirmut 125
sall@@ 125
saqqitauningit 125
silataani@@ 125
simajariaq@@ 125
taiksumani 125
tavvuuna 125
tungali 125
ujju@@ 125
ungataani@@ 125
uqali@@ 125
uqaqatiqar@@ 125
................................@@ 124
aaggaaqtuq@@ 124
ajung@@ 124
angiqqisii 124
anngittunik 124
arunni@@ 124
gavamali@@ 124
giangit 124
ilauqtuq 124
isiq@@ 124
isuman@@ 124
kamajuq 124
ministauju@@ 124
ministauvv@@ 124
muaqpat 124
nunavulimaami 124
quttin@@ 124
siurningit 124
taimaliqai 124
tungilia 124
unnarama 124
unnarmat 124
urunn@@ 124
utaq@@ 124
vaati 124
,000.00@@ 123
akitulu@@ 123
apiqqutimut 123
aqra@@ 123
arninginnit 123
atiliurutausimajut 123
aviuk 123
gijaujut 123
ingittut 123
iniqsau@@ 123
itsugu 123
ivuq 123
jag@@ 123
jumajakka 123
naasau@@ 123
nainaaqsimajut 123
niujuq 123
niurr@@ 123
nuu@@ 123
qallunauj@@ 123
qamaniqtu@@ 123
qaujijumavunga 123
rng@@ 123
sanav@@ 123
sanirmut 123
sivuliqtinginni 123
sul@@ 123
taissu@@ 123
taqaqpaa 123
tuqtut 123
unnginittinni 123
upalungaij@@ 123
uumaqquti@@ 123
uvv@@ 123
2000@@ 122
60 122
agunn@@ 122
akkanir@@ 122
annginatta 122
aqqa@@ 122
attiav@@ 122
gal@@ 122
iksivautaup 122
inuusir@@ 122
juu@@ 122
kiuq@@ 122
kpunga 122
niriug@@ 122
nunavumiut 122
nutaanng@@ 122
parnaut@@ 122
pijjutiqaqtuq 122
puru 122
qaujigiarutit 122
qausu@@ 122
sanajaun@@ 122
simanirij@@ 122
sivuniagut 122
tuumut 122
u. 122
ukun@@ 122
ummangaaq 122
uqausiqaq@@ 122
1999 121
allaij@@ 121
angiru@@ 121
apiqqusirij@@ 121
aqar@@ 121
atinni 121
atitut 121
attarniq 121
aulajjut@@ 121
gavamalirijikkut 121
giaksaq 121
ikku 121
ilauqtavut 121
ilinniaruti@@ 121
iliqusi@@ 121
ingitta 121
ittiar@@ 121
katimajinginnik 121
ksanut 121
lauqtuq 121
maligaliurviliarsimajut 121
nalunaiqsig@@ 121
ning@@ 121
pang@@ 121
piqujaq 121
tamakk@@ 121
tausanik 121
tisi@@ 121
tunilu 121
tunisij@@ 121
tunngasuttig@@ 121
ukiuqtaq@@ 121
viuris 121
amisuulu@@ 120
anginni@@ 120
ataata@@ 120
atuutiqatti@@ 120
ingaaq@@ 120
iqqaiti@@ 120
maligaliuqtilimaat 120
maligarmut 120
malittugu 120
malli 120
milu 120
naamman@@ 120
niqi@@ 120
nunalinni@@ 120
parnaguti@@ 120
pis@@ 120
qutiqar@@ 120
simalluta 120
sivulliq 120
taimannak 120
titirarv@@ 120
ukpirusu@@ 120
uliqtuq 120
unigit 120
uqtitau@@ 120
15-@@ 119
38@@ 119
aaqqiumainnarutinullu 119
angajunit 119
angajuq 119
anis@@ 119
aqpaktut 119
aqqik@@ 119
arialinnik 119
asir@@ 119
aulaniqatti@@ 119
auma@@ 119
haml@@ 119
ikka@@ 119
ikupigvilirijikkut 119
imarmi@@ 119
innama 119
inulirijikkullu 119
isumatuinnaqtunga 119
jumallugit 119
kiujau@@ 119
maligaliurti@@ 119
ministangat 119
niriupp@@ 119
pijitti@@ 119
pilirivvik 119
piqann@@ 119
puq@@ 119
qarasaujakkut 119
qit@@ 119
siuk 119
taimainn@@ 119
tauqattaqtut 119
tautug@@ 119
tittig@@ 119
ungataanu@@ 119
ungin@@ 119
ungittut 119
uqatti@@ 119
utitti@@ 119
2002-mi 118
amisunit 118
amisuummata 118
anginu 118
anngilagut 118
arisimaj@@ 118
atii 118
iksamik 118
ilinniarviit 118
immagaa 118
itinnut 118
ittaq@@ 118
lirijirju@@ 118
liriniup 118
lutigut 118
maniaq@@ 118
manna 118
mijara 118
miliannik 118
nalau@@ 118
niruaqtigij@@ 118
pattut 118
pinasuarusiulauqtumi 118
simajuqaq@@ 118
tailak 118
taissumani 118
taunirmut 118
tausan@@ 118
titiqqausi@@ 118
tuniuk 118
ungimmat 118
uqalimaaqtauqullugu 118
vikkut 118
aaqqigi@@ 117
aig@@ 117
aikp@@ 117
amisuruqpalli@@ 117
ammi@@ 117
apiqqutiqar@@ 117
aqquuj@@ 117
arasuarnirmut 117
arumag@@ 117
arvik@@ 117
guma 117
ikp@@ 117
ilisav@@ 117
ilulingita 117
iniaqtavut 117
inniqs@@ 117
inuki 117
kiinaujalirijiit 117
kiujjutinga 117
liriniq@@ 117
paipp@@ 117
pinasuar@@ 117
qait 117
qaujimajuinnaugatta 117
qaujisarniq 117
qujannamiirumavara 117
supp@@ 117
taimait@@ 117
tamaunga 117
unani 117
uqausiqarumallunga 117
vigi@@ 117
................ 116
aaqqigiaruti@@ 116
ajikkut 116
alliq@@ 116
aluarmat 116
angiqp@@ 116
anillu 116
aqn@@ 116
iluni 116
imit 116
ippaksaq 116
iqqaqtuiju@@ 116
lutigu 116
niriuk@@ 116
nutaamut 116
piqujivungaaru@@ 116
piruq@@ 116
sijju@@ 116
sinasu@@ 116
turaaqti@@ 116
ulugit 116
uninganut 116
viujuq 116
aglukkaq 115
allaat 115
anganni 115
aniaqtut 115
ans@@ 115
arniaqpuq 115
arniqs@@ 115
atsaq 115
gavamalirinirmut 115
gavamaup 115
ikajuqtauv@@ 115
ilinniarvik 115
kivin 115
parnaut 115
qanuittutuinn@@ 115
qis@@ 115
quviasukpunga 115
siniaq@@ 115
sivuliqtiit 115
taikk@@ 115
tamma@@ 115
tuuliq@@ 115
unngittunik 115
uvva 115
viu@@ 115
www.assembly.nu.ca 115
37@@ 114
40@@ 114
500 114
akaunngiliurutitaq@@ 114
anginnu 114
angirrarij@@ 114
apiqqutiksait 114
arniaqtunik 114
atinga 114
giall@@ 114
ikajurniq@@ 114
imaimmat 114
inginni@@ 114
iqatiq@@ 114
kiinaujaq 114
naammasaqtuit 114
nain@@ 114
namminiqutiq@@ 114
nann@@ 114
pairivi@@ 114
pivalliaj@@ 114
qanuigi@@ 114
qaujimammata 114
qaujjiti@@ 114
qimm@@ 114
qq@@ 114
tangat 114
tas@@ 114
tikirarjuaq 114
tikittugu 114
ugi 114
ukiukkut 114
uqa@@ 114
utait 114
34@@ 113
60@@ 113
= 113
ajarmangaata 113
amisuaqti@@ 113
aqtita@@ 113
aturniaq@@ 113
aulajjutiit 113
avi 113
ikummaqqutilirijikkunnut 113
inuktitu@@ 113
iqaluttuuttiarmi 113
isumaqsu@@ 113
jumavakka 113
katimajiuqataujut 113
kiinaujaqturuti@@ 113
kulu@@ 113
liangu@@ 113
malu 113
miniq 113
mirn@@ 113
naammat@@ 113
nalunaiqsuq@@ 113
pinski 113
ujaranniaq@@ 113
uluti 113
uqalimaagaq@@ 113
uqaqtittijii 113
vimmik 113
vur@@ 113
0,000 112
200 112
30-@@ 112
akis@@ 112
anit@@ 112
apiqqutitsait 112
aqatau@@ 112
ariassaq 112
attuit 112
auqqu@@ 112
auvunga 112
aviktursimajuni 112
haamal@@ 112
iqalung@@ 112
katimajiralaatuinn@@ 112
liqtut 112
maannar@@ 112
nanu@@ 112
panniqtuumi 112
piqqu@@ 112
ppuq 112
qak@@ 112
qaujimanngilanga 112
qulluq@@ 112
sanagiaq@@ 112
sanikiluarmi 112
sivulliujj@@ 112
takunnar@@ 112
tausimajunik 112
tsanik 112
tunnir@@ 112
tuumi 112
ujugut 112
unu@@ 112
uqqurmiut 112
us 112
aagga 111
aarn@@ 111
amittuq 111
amp@@ 111
anngusu@@ 111
apirijumallunga 111
arniarmangaaq 111
atuliqujaujuq 111
gilugit 111
ilijau@@ 111
ilinniaqtitau@@ 111
innu@@ 111
inuquti@@ 111
isumaalugu@@ 111
ivj@@ 111
kanatalimaami 111
katimajiralaangit 111
kiujjutik 111
kiutti@@ 111
makimagasu@@ 111
mitsa@@ 111
nalunaikk@@ 111
naq@@ 111
ngu@@ 111
paqn@@ 111
pijariak@@ 111
pila@@ 111
pitaa 111
piti@@ 111
qaujijumajunga 111
qaujimajatuqanginnit 111
sanagi@@ 111
simamm@@ 111
taaksi@@ 111
tam@@ 111
tarnik 111
tiniaq@@ 111
tittiniq 111
........ 110
aajiiqatigi@@ 110
aaqqig@@ 110
aaqqissu@@ 110
agal@@ 110
ajuinn@@ 110
aluni 110
angiqatig@@ 110
annikittur@@ 110
aqsutik 110
arniit 110
arninginni 110
arraani@@ 110
ilaar@@ 110
iqqaqtuij@@ 110
isumagil@@ 110
jutiks@@ 110
kaanturaaq@@ 110
katimajit 110
lirmata 110
nas@@ 110
nilli@@ 110
niruaqtigisimaj@@ 110
nunaliquti@@ 110
piliriaksaq@@ 110
silarjuamut 110
suut 110
tag@@ 110
takuguma@@ 110
tamakkunani 110
tigumiaq@@ 110
ujariaq@@ 110
ukiunik 110
unngittunut 110
-mi 109
ajarmata 109
angajuqqa 109
gavamauqatigiittulirinirmi 109
giir@@ 109
ikpiarju@@ 109
iniujut 109
jii 109
katilimaaqtugit 109
katinng@@ 109
marrunnik 109
pijjutigij@@ 109
qujannamiirumal@@ 109
tiliuri@@ 109
tui 109
tunuviani 109
tusan 109
uluta 109
unikkaaliangu@@ 109
44@@ 108
aanniaqtaili@@ 108
aanniaviliaqtunut 108
aaru@@ 108
aminut 108
ariaks@@ 108
avatilirinirmut 108
ilaurmat 108
ippatsaq 108
iqatt@@ 108
iqqanaijaqatiq@@ 108
iqqanaijaqtikka 108
isumaksarsiur@@ 108
itillugit 108
miksausak@@ 108
nanulik 108
pilimmaksa@@ 108
pimmariummat 108
qangatasuukkuvi@@ 108
qatt@@ 108
qitirmiunit 108
qitirmiunut 108
taqar@@ 108
tsutik 108
uivi@@ 108
uumma@@ 108
v 108
05 107
1999@@ 107
akilirsu@@ 107
aksi@@ 107
angalu 107
angani@@ 107
anngittunut 107
araalu@@ 107
arraagut@@ 107
artut 107
asinginnullu 107
atsainnaq 107
auni@@ 107
gaasi@@ 107
ikkatta 107
iksivautap 107
ilinniav@@ 107
ilisa@@ 107
illumi 107
inuis@@ 107
iqata@@ 107
jur@@ 107
kajusigiar@@ 107
kang@@ 107
katimajingannit 107
katiqatiq@@ 107
maligalirinirmut 107
maligaup 107
mamiappunga 107
ministaujut 107
nailligiar@@ 107
nainaar@@ 107
nalautsa@@ 107
nill@@ 107
nunavulima@@ 107
nutaami 107
paami 107
pulaar@@ 107
qara 107
qilavvak 107
qulluktuq 107
simaniku@@ 107
taam@@ 107
taimaittuq@@ 107
tiginiar@@ 107
timiqut@@ 107
unnullu 107
uqtunik 107
............ 106
aagg@@ 106
aanniaqarn@@ 106
aglattiu 106
ajauqtu@@ 106
apalu@@ 106
arniarama 106
arniujut 106
atangir@@ 106
aulatsiji@@ 106
g-@@ 106
ikkutigut 106
imut 106
ingnit 106
innirvik 106
inuusilirijikkunullu 106
jumag@@ 106
kanngunaqtu@@ 106
kkanirn@@ 106
makimaj@@ 106
ministaq@@ 106
natsilik 106
qattit 106
qujagi@@ 106
qujannamiiqpara 106
simajummari@@ 106
simalirmat 106
simanngimmata 106
ssau@@ 106
takula@@ 106
tilauq@@ 106
ungataanut 106
utiqaq@@ 106
utitsanik 106
utitsaq 106
uummaqqutilirinirmut 106
...... 105
48@@ 105
aktuq@@ 105
akulliq 105
alli 105
angannut 105
angikk@@ 105
aqtuqar@@ 105
arraaguup 105
arvig@@ 105
arvimmi 105
atinnik 105
gavamatuqakkunnik 105
ikupivvi@@ 105
iluv@@ 105
iqqanaijaqtinginnut 105
iralaat 105
its 105
jutiksaq 105
katimajinginnit 105
lirin@@ 105
maajji 105
maannauju@@ 105
maliktaujariaq@@ 105
matuj@@ 105
ministau@@ 105
ninginnut 105
nunavuumi@@ 105
pisi 105
pivaallir@@ 105
pugu 105
qikiq@@ 105
qujannamiirumavakka 105
sai@@ 105
surlu 105
suur@@ 105
tigij@@ 105
tuttu@@ 105
ullaaq 105
unirs@@ 105
utigiv@@ 105
vavut 105
0-1 104
3.@@ 104
35 104
aatuva@@ 104
aluaqtillugu 104
aniarmata 104
arraan@@ 104
atirnik 104
aullunga 104
auniaqtu@@ 104
gavamalirijikkunnut 104
hamlakkut 104
ikkunni 104
ilaliujjau@@ 104
ilinnut 104
inuung@@ 104
iqalugasu@@ 104
ivak@@ 104
jumit 104
katimajjutiksanu@@ 104
maliktugit 104
mallugu 104
mikiniq@@ 104
miutait 104
pattak@@ 104
qaritaujatiguungajuq 104
sanaug@@ 104
simammangaaq 104
taaksij@@ 104
tapp@@ 104
ttinir@@ 104
tugi 104
tunirrusi@@ 104
turaaq@@ 104
ukiung@@ 104
ulluit 104
uuk@@ 104
uungajut 104
............. 103
akigij@@ 103
aluaqtugut 103
anginnatta 103
anginng@@ 103
angunasuk@@ 103
aqa 103
aquti@@ 103
arniup 103
gavamakkunginni 103
ilimaat 103
iqqanaijaqtitti@@ 103
isumaal@@ 103
liriv@@ 103
maligar@@ 103
nunalipauj@@ 103
nunaqaqqaaq@@ 103
nunavuut 103
pilirivia 103
pinnguarv@@ 103
pitsi@@ 103
qangatasuu@@ 103
sannginiq@@ 103
silaup 103
tsiniq 103
ttunga 103
tumini@@ 103
tunngasugitsi 103
tuuk 103
uks@@ 103
ungataani 103
unngittumik 103
uqarumajunga 103
uuktuutigilugu 103
80 102
@ 102
aaqqiumainnarutiillu 102
alianaigu@@ 102
angiqtauju@@ 102
angunasutti@@ 102
anngittulirinirmut 102
apirijumallugu 102
armijuq 102
attig@@ 102
atuqtuksanut 102
aujumi 102
aulattin@@ 102
autigij@@ 102
ijuq 102
ikajuutit 102
illulirinirmut 102
inirnik 102
iqqattu@@ 102
jumallugu 102
jummari@@ 102
mannaujuq 102
muaqtillugu 102
nikuv@@ 102
niurru@@ 102
nunanganni 102
pasi@@ 102
qanuig@@ 102
qanur@@ 102
qilagvaq 102
taqqaani 102
taujunnaqtut 102
tukisititau@@ 102
ugaluar@@ 102
uqaujjigiaruti@@ 102
uqs@@ 102
uquma@@ 102
uummaqqutinut 102
1u 101
49@@ 101
akuk@@ 101
alinnik 101
anigu@@ 101
anngippat 101
anullu 101
apiqqutiss@@ 101
aqpita 101
arniaqtunut 101
arragumi 101
atuinnaujut 101
atuqtuar@@ 101
gavamak@@ 101
gavamakkunnik 101
ikkaluaqtunga 101
iliqqusilirinirmut 101
illuliuq@@ 101
ingannik 101
inngaaqtut 101
inuunasu@@ 101
ippigusu@@ 101
iqaluktu@@ 101
iqpa@@ 101
iqqaug@@ 101
ittumi 101
kuapuris@@ 101
lirijit 101
livai 101
mataam 101
mir@@ 101
mozos3 101
naammaks@@ 101
nalunaiqsiv@@ 101
niruag@@ 101
pigiali@@ 101
pisii 101
pivalliani@@ 101
qanuing@@ 101
riaqar@@ 101
sainnaq 101
saqqii@@ 101
tigilugit 101
till@@ 101
timmi@@ 101
tuti 101
uniaqtunit 101
vijju@@ 101
viliams 101
vimmit 101
vtm0jtu 101
22@@ 100
33 100
90 100
aatuvaami 100
anginnir@@ 100
anirmit 100
annu 100
aqsij@@ 100
arninganit 100
asunniaq@@ 100
atuqtaugaj@@ 100
iki@@ 100
ilainn@@ 100
iliqqus@@ 100
illuniuk 100
imial@@ 100
iqqartu@@ 100
kajung@@ 100
kajusijunn@@ 100
kuapuriisankut 100
kuug@@ 100
majara 100
makkuktut 100
maligass@@ 100
migatta 100
mikilu@@ 100
naliq@@ 100
nunavummiu@@ 100
nuqqaqti@@ 100
pigiartitsi@@ 100
pilirivimmut 100
piqujivunga@@ 100
piviqaqti@@ 100
rni@@ 100
sallini 100
sika@@ 100
tauniq 100
tauvut 100
titiraqsimaj@@ 100
tukili@@ 100
tunngasuttitti@@ 100
uninginnik 100
unnginningani 100
uqartii 100
300@@ 99
ajulirinirmut 99
allavi@@ 99
anasu@@ 99
aningit 99
asiuj@@ 99
aturtut@@ 99
giaqaraj@@ 99
iing 99
ikpinn@@ 99
ilinniarvimmi 99
ilinniatitti@@ 99
ilisaijinut 99
innasu@@ 99
ir 99
ittugu 99
kimmir@@ 99
kinakku@@ 99
ktuq 99
maliganga 99
marruung@@ 99
muur@@ 99
niruaqta@@ 99
nutar@@ 99
pap@@ 99
pilirinirmut 99
puri@@ 99
qanga@@ 99
quviagi@@ 99
sapu@@ 99
saum@@ 99
silattusarvimmi 99
sivuliuq@@ 99
sivuni@@ 99
tamassumunga 99
tamaunng@@ 99
tauniaqtuq 99
tuinnau@@ 99
tumit 99
unikkaaliaq 99
uqaqatigij@@ 99
uqqai 99
utinginnit 99
uuviti 99
-n@@ 98
......... 98
2000-2001 98
2004-mi 98
aaqi@@ 98
ammal@@ 98
angittugut 98
aqqau@@ 98
aqsa@@ 98
aqtanginnik 98
arniaqput 98
arviit 98
atunik 98
auniaqtut 98
gavamauqatigi@@ 98
igutiit 98
iqqaqtuivilirijikkunnut 98
isumagillugu 98
juj@@ 98
kiinaujaqaqtitti@@ 98
maligatigut 98
naggajjau 98
piitusan 98
qimirrug@@ 98
riipika 98
sunakk@@ 98
taakkutiguuna 98
tauniarmangaata 98
titiraqsimajuq 98
uluri@@ 98
umallunga 98
uqsuqtuumi 98
aagut 97
aanniaqtulirijinut 97
aga 97
alang@@ 97
amisuaqtiq@@ 97
angajuqqaarij@@ 97
aninga 97
arniku@@ 97
atuqattar@@ 97
iqqanaijaqtiquti@@ 97
itsaq@@ 97
itsiv@@ 97
juraias 97
kisunik 97
makk@@ 97
maligaujuq 97
malluta 97
mangaata@@ 97
nangiq@@ 97
piqujaks@@ 97
piqujarju@@ 97
piqutigij@@ 97
qai@@ 97
qanuinngitti@@ 97
qimirruniq 97
qujagivara 97
rala@@ 97
rni 97
simanngimmat 97
titiqqan@@ 97
tj@@ 97
ttiniar@@ 97
ugij@@ 97
ukta@@ 97
ullari@@ 97
unniaq@@ 97
usuung@@ 97
uummaqqu@@ 97
................@@ 96
2,@@ 96
39@@ 96
aanniasiuqtiit 96
aaqqiumainnarutinut 96
akunikall@@ 96
alak 96
amiik 96
anili 96
anuung@@ 96
apirsu@@ 96
aqattaqtunut 96
aqsimajunik 96
arijavut 96
asitjir@@ 96
assainnaq 96
attitti@@ 96
aturniq@@ 96
aurmat 96
autig@@ 96
gavamavut 96
ikarrialu 96
iniarnir@@ 96
innatuqarnik 96
inngaaqtunik 96
inulirijituq@@ 96
iqatigi@@ 96
jung@@ 96
kangiq@@ 96
maannaujumi 96
makua 96
nakit 96
niarnir@@ 96
nunavumiunut 96
nuut@@ 96
piqujivungaarut 96
pitta@@ 96
pivallianiq@@ 96
riv@@ 96
silattuqs@@ 96
simaninginnik 96
sutigu 96
taimainninganu 96
taimaipp@@ 96
turn@@ 96
umajut 96
uniaqtumut 96
uqata@@ 96
uqausirmik 96
uqullugit 96
........... 95
45 95
67 95
aanniasi@@ 95
ajjigiinngittut 95
akkan@@ 95
aluaqtillugit 95
apiqqutiujuq 95
aqata@@ 95
aqtillunga 95
auvak@@ 95
igutit 95
ikajuutiit 95
ilaa 95
ilauqput 95
ilinniarnir@@ 95
ilisaqsi@@ 95
inatta 95
iqqanaijaqtulirijikkunnit 95
katitsutik 95
kingulliq@@ 95
kinnguuma@@ 95
kug@@ 95
niuq@@ 95
nutaanut 95
nuvi@@ 95
paanap@@ 95
paliisikk@@ 95
pijaujariaq@@ 95
pimmariuvuq 95
qurluqtuumi 95
riniq 95
rniar@@ 95
simavavut 95
sunga 95
taannali 95
taimaigunn@@ 95
taminik 95
tuqtutik 95
uqaqqaugamailaak 95
utiksanut 95
.............. 94
aaqqigiaru@@ 94
ajunng@@ 94
aliqpat 94
anikkut 94
ariir@@ 94
arniarmangaata 94
ilagiliuti@@ 94
ilitarijauj@@ 94
iliur@@ 94
iluanngiliur@@ 94
inirmi@@ 94
iqaluttu@@ 94
jariaq@@ 94
kajusiniq@@ 94
katimauti@@ 94
kattu@@ 94
kiinaujaquti@@ 94
kisumut 94
kuapuriisan@@ 94
lia 94
llatta@@ 94
majunik 94
mitsausit@@ 94
nalunaitti@@ 94
nanurn@@ 94
naujaani 94
niriun@@ 94
nunaliralaanguniq@@ 94
pigiaqtitamut 94
piqa@@ 94
piqtug@@ 94
piug@@ 94
qamaniqtuarmi 94
qingaummi 94
simatuinn@@ 94
sivulliqpau@@ 94
sivuq 94
tsinirmik 94
unnukkut 94
aagga@@ 93
ajunngi@@ 93
angiqtugut 93
apiriv@@ 93
aqtunilu 93
arraagunit 93
asitj@@ 93
attillugit 93
atuinnautitti@@ 93
atulir@@ 93
gattigu 93
ikkunnik 93
ikup@@ 93
iliqqusilirijikkut 93
illuru@@ 93
inirnut 93
iqqanaijaqtut 93
isumaj@@ 93
itillugu 93
kingulli@@ 93
kkaj@@ 93
maligaliutti@@ 93
mappiq@@ 93
minirnut 93
nuqqangati@@ 93
pigiala@@ 93
pijitsiru@@ 93
piliriarmut 93
pilirin@@ 93
sauj@@ 93
sumani 93
taqakkaniq@@ 93
tikir@@ 93
tirij@@ 93
titiraqsimajunit 93
turaangati@@ 93
ugiaq@@ 93
unnaqtu@@ 93
unnusami 93
uqsualulirijikkut 93
-mut 92
alirijikkut 92
anginiqs@@ 92
annura@@ 92
aqatiq@@ 92
arraaguni 92
giliq@@ 92
ikata@@ 92
iluagut 92
ingnu 92
inngil@@ 92
iqqaqtuivilirijikkut 92
katimajiralaa 92
katimatillugit 92
mamian@@ 92
manga 92
ministanganut 92
ministaujumut 92
nuatti@@ 92
nuutti@@ 92
pijjutilik 92
pingasunit 92
qaujara 92
sigi@@ 92
simaliqtuq 92
tainnar@@ 92
tali@@ 92
tamassuma 92
tittinasu@@ 92
ttaq@@ 92
uituat 92
ulauqtumik 92
ungavariaq@@ 92
uqaqtillugu 92
uqausirijanga 92
uuttuuti@@ 92
vi 92
vigisimaj@@ 92
akainnar@@ 91
akuni 91
alauqpugut 91
alinnut 91
amisualu@@ 91
aniaqtu@@ 91
aqsuni 91
arialinnut 91
asuillaak 91
atitu@@ 91
aukta@@ 91
gialinnik 91
hain 91
ikkaluaqtillugu 91
ila 91
ilauti@@ 91
immi@@ 91
inngimmata 91
inungnut 91
inuusuktu@@ 91
iqalunnit 91
iqattaqtut 91
isulippuq 91
isulitti@@ 91
itsi 91
jutiqar@@ 91
katimavijju@@ 91
maligaliuqtilimaanut 91
maligaliuqvimmi 91
migut 91
nuq@@ 91
pinasuarusir@@ 91
pingasuuj@@ 91
pisiuk 91
qaujisaru@@ 91
qaupp@@ 91
siiti@@ 91
siqinng@@ 91
siuti@@ 91
taav@@ 91
tail@@ 91
takugiar@@ 91
tinniar@@ 91
tukisijunga 91
unagit 91
uvanni 91
-ni 90
68 90
agala@@ 90
ajitigut 90
aktarn@@ 90
alilauq@@ 90
allaijut 90
angajuqqau@@ 90
angippat 90
annik@@ 90
aqattarnirmut 90
aqtauningit 90
aquv@@ 90
arig@@ 90
artumik 90
atausirmi 90
aulauti@@ 90
ikainnar@@ 90
ilisaqsiniq 90
inia 90
innuk@@ 90
ippata 90
iqqanaijaqtulirijikkunnut 90
issivauta 90
ittinn@@ 90
lirijik@@ 90
mp@@ 90
muusali@@ 90
nut@@ 90
pangniq@@ 90
pigiaqtit@@ 90
piliriass@@ 90
qats@@ 90
qujag@@ 90
saputi@@ 90
siqinnguj@@ 90
talaviis@@ 90
tarrij@@ 90
titiraqti@@ 90
ttaili@@ 90
uari 90
uqarunnar@@ 90
utuinn@@ 90
uvattinni 90
agl@@ 89
aikpangani 89
akkat 89
aku 89
alaar@@ 89
alirutta 89
aluaratta 89
ammarik@@ 89
angijummari@@ 89
angiqtu@@ 89
annangittu@@ 89
aqsimaj@@ 89
aqtiq@@ 89
arumallunga 89
atuqtauniaq@@ 89
atuutin@@ 89
avittuqsimajuni 89
gavamaq@@ 89
ijiit 89
ikkarialuk 89
ikkit 89
illir@@ 89
immaq@@ 89
ingirrajulirijikkunnut 89
isimaj@@ 89
jja@@ 89
kasu@@ 89
katimajingi 89
kiinaujartu@@ 89
makimainnarutinut 89
maligaliurving@@ 89
mmagit 89
mmarik@@ 89
naammappuq 89
niruanngittut 89
pasij@@ 89
pijariiqta@@ 89
qainn@@ 89
qimaav@@ 89
qimirrunirmut 89
quttittu@@ 89
saan@@ 89
simaliri@@ 89
sivulliuti@@ 89
taatsuminga 89
taikunga 89
tigusi@@ 89
tukisigiakkannir@@ 89
tungiling@@ 89
tuniuqqa@@ 89
tuqu@@ 89
tuv@@ 89
ujja@@ 89
ungajuq 89
unirij@@ 89
unngittunga 89
uqakkannir@@ 89
vaan@@ 89
105@@ 88
aanniaqarnangittulirinirmut 88
akunn@@ 88
angijuutinut 88
angittunik 88
anguvut 88
aqattariaq@@ 88
atsur@@ 88
guuq 88
iitua 88
iksivau@@ 88
ilinniaqtut 88
iliqqusiq@@ 88
ingmut 88
inunginnut 88
inutuqait 88
iqtu@@ 88
isii 88
junik 88
kajusiluta 88
katujjiqatigiing@@ 88
kiuvan 88
liqpat 88
malaur@@ 88
mittimatal@@ 88
mittimatalimmi 88
naasautinga 88
namma@@ 88
namminiquti@@ 88
namminir@@ 88
parnautiq@@ 88
pikuu 88
piliriviujunut 88
pulaariar@@ 88
qaujimagiaq@@ 88
qujagij@@ 88
sanajaugi@@ 88
taakkualu 88
tamar@@ 88
tammar@@ 88
ttut 88
tusaajitigu@@ 88
ukpir@@ 88
ungasittu@@ 88
ungati@@ 88
uniaqtuni 88
uqaqtitti@@ 88
uqausinginni 88
uta 88
utiri@@ 88
akisu@@ 87
akta@@ 87
alirijiit 87
amiakku@@ 87
angillu 87
atsiar@@ 87
attumik 87
atuqtuaq@@ 87
auninganut 87
avinnga 87
hammal@@ 87
ikuma@@ 87
ilaakkut 87
ilagiit 87
illulirijirjuakkunnut 87
immaqaqai 87
iqqanaijaangujut 87
iqqanaijaanut 87
issivauta@@ 87
itsugit 87
jug@@ 87
katimajir@@ 87
kiinaujjassa@@ 87
kisut 87
ktutik 87
maannauju 87
mag@@ 87
mingmata 87
minist@@ 87
mmaqqu@@ 87
namituinnaq 87
nunami 87
paippaat 87
pilirianguvalli@@ 87
pinasuarusirmi 87
qanuilingalirn@@ 87
qaujimagi@@ 87
silataanut 87
sirmik 87
sivauta@@ 87
sivulliqpaat 87
ssanut 87
tavvung@@ 87
ting@@ 87
ttinasu@@ 87
tunirru@@ 87
tusaru@@ 87
ugulli 87
ujup 87
uninginni 87
unngilanga 87
utikkut 87
vagit 87
04 86
85 86
aallir@@ 86
kajusijuma@@ 86
kamisana 86
kiinaujatsamaani 86
kivallirmut 86
kivan 86
lirmat 86
maik 86
miittugut 86
ministanut 86
nanij@@ 86
parnaummit 86
pilirivikkut 86
piliriviujunik 86
qangatasuukk@@ 86
qanuilu@@ 86
qanuinngi@@ 86
qavut 86
qitianut 86
ratta 86
silattu@@ 86
simajumit 86
sivunissaq@@ 86
timimigut 86
tunngasugissi 86
ulliq 86
ullutuinn@@ 86
uqaut@@ 86
utsi 86
vimmi@@ 86
anguti@@ 85
d@@ 85
ingannit 85
issaq@@ 85
mmiq 85
naggaj@@ 85
nukti@@ 85
pair@@ 85
tasi@@ 85
70 84
al 84
arvaar@@ 84
ilisaq@@ 84
maligarnit 84
muusa@@ 84
tusau@@ 84
uniq 84
aglu@@ 83
akall@@ 83
ilagili@@ 83
illulirijirju@@ 83
qitu@@ 83
tamajj@@ 83
uar@@ 83
var@@ 83
37 82
aaqqiumainnar@@ 82
annamiik 82
arsimajut 82
ingirra@@ 82
miali 82
nailli@@ 82
siurn@@ 82
vin@@ 82
vv@@ 82
aag@@ 81
inuinnaqtun 81
sav@@ 81
2004@@ 80
47@@ 80
58@@ 80
ingir@@ 80
luk 80
pul@@ 80
saiman@@ 80
apik 79
havi@@ 79
kanngun@@ 79
katimajiralaangu@@ 79
lik@@ 79
sal@@ 79
ujuma@@ 79
32 78
ingu@@ 78
piarju@@ 78
qanutig@@ 78
ruma@@ 78
198@@ 77
52 77
pulaaq@@ 77
uili@@ 77
aglukk@@ 76
ka 76
panniqtu@@ 76
34 75
57@@ 75
77 75
ain@@ 75
anap@@ 75
atiga 75
itt@@ 75
lun@@ 75
taa 75
38 74
ikajuuti 74
kusug@@ 74
ina 73
iqaqtunik 73
kinngu@@ 73
tiguuna 73
isumaksaq@@ 72
katimajjutik@@ 72
paul 72
piq 72
takuk@@ 72
5,000 71
65 71
`@@ 71
kivalliq 71
siamma@@ 71
t-@@ 71
ta. 71
197@@ 70
62 70
atigu@@ 70
f@@ 70
kangiqtuga@@ 70
liin 70
36 69
ikkarri@@ 69
natsi@@ 69
sanu@@ 69
2006 68
maga@@ 68
64 67
b@@ 67
mitsau@@ 67
piqujiv@@ 67
situ@@ 67
vivv@@ 67
4.@@ 66
5.@@ 66
75 66
alait 66
anti@@ 66
j-@@ 66
patta@@ 66
amal@@ 65
ip 65
rig@@ 65
2004-2005 64
55 64
auju 64
ligaarju@@ 64
makimainnar@@ 64
ur 64
,00@@ 63
3,@@ 63
41 63
58 63
atti 63
mur@@ 63
sak@@ 63
sivau@@ 63
sui@@ 63
autinga 62
ungaar@@ 62
66 61
limaami 61
nigi@@ 61
pik 61
39 60
63 60
aatu@@ 60
arraagutama@@ 60
jai@@ 60
mari@@ 60
nunngu@@ 60
sta@@ 60
tani 60
uattiar@@ 60
300 59
59@@ 59
alianaig@@ 59
atji@@ 59
e-@@ 59
qull@@ 59
suuq@@ 59
unnus@@ 59
 59
aluna@@ 58
hi@@ 58
miningit 58
nunatsiaq 58
silattus@@ 58
urunniiqtuq 58
ajauqtiit 57
ilaann@@ 57
kak@@ 57
tukisinaliq@@ 57
urunniiq@@ 57
… 57
57 56
isumassaq@@ 56
pan@@ 56
tuinnaqpunga 56
utinullu 56
48 55
arva@@ 55
iitu@@ 55
ingujutit 55
naliqq@@ 55
42 54
700 54
aanik 54
augu@@ 54
nik@@ 54
qaujigiaruti@@ 54
03 53
1,000 53
46 53
54 53
a-@@ 53
alar@@ 53
atiliurutau@@ 53
h 53
ikuma 53
mmaj@@ 53
pala@@ 53
summar@@ 53
49 52
78@@ 52
gin@@ 52
niur@@ 52
qari@@ 52
sivulliq@@ 52
urngagut 52
,000.@@ 51
.9 51
2003-2004 51
6.@@ 51
69 51
anna 51
ans 51
innia 51
lin@@ 51
utiillu 51
47 50
56 50
95 50
akitu@@ 50
arjuk 50
gui@@ 50
j 41
* 40
w@@ 32
e 24
d 21
c 20
” 20
y 18
’ 18
_ 15
o 15
x@@ 15
“ 15
+ 14
x 14
b 13
} 13
y@@ 12
 12
! 11
f 7
w 6
&@@ 4
z@@ 4
~ 4
` 3
{ 2
^ 1
« 1
ÿ@@ 1
madeupword0000 0
madeupword0001 0
madeupword0002 0
madeupword0003 0
madeupword0004 0
madeupword0005 0
madeupword0006 0
